unsigned char converted_model_tflite[] = {
  0x28, 0x00, 0x00, 0x00, 0x54, 0x46, 0x4c, 0x33, 0x00, 0x00, 0x00, 0x00,
  0x00, 0x00, 0x00, 0x00, 0x00, 0x00, 0x00, 0x00, 0x00, 0x00, 0x12, 0x00,
  0x1c, 0x00, 0x04, 0x00, 0x08, 0x00, 0x0c, 0x00, 0x10, 0x00, 0x14, 0x00,
  0x00, 0x00, 0x18, 0x00, 0x12, 0x00, 0x00, 0x00, 0x03, 0x00, 0x00, 0x00,
  0xd4, 0x7f, 0x00, 0x00, 0x98, 0x59, 0x00, 0x00, 0x80, 0x59, 0x00, 0x00,
  0x3c, 0x00, 0x00, 0x00, 0x04, 0x00, 0x00, 0x00, 0x01, 0x00, 0x00, 0x00,
  0x0c, 0x00, 0x00, 0x00, 0x08, 0x00, 0x0c, 0x00, 0x04, 0x00, 0x08, 0x00,
  0x08, 0x00, 0x00, 0x00, 0x08, 0x00, 0x00, 0x00, 0x45, 0x00, 0x00, 0x00,
  0x13, 0x00, 0x00, 0x00, 0x6d, 0x69, 0x6e, 0x5f, 0x72, 0x75, 0x6e, 0x74,
  0x69, 0x6d, 0x65, 0x5f, 0x76, 0x65, 0x72, 0x73, 0x69, 0x6f, 0x6e, 0x00,
  0x46, 0x00, 0x00, 0x00, 0x30, 0x59, 0x00, 0x00, 0x1c, 0x59, 0x00, 0x00,
  0xe0, 0x58, 0x00, 0x00, 0xbc, 0x58, 0x00, 0x00, 0xa8, 0x58, 0x00, 0x00,
  0x74, 0x58, 0x00, 0x00, 0x40, 0x58, 0x00, 0x00, 0x0c, 0x58, 0x00, 0x00,
  0xb8, 0x57, 0x00, 0x00, 0x64, 0x57, 0x00, 0x00, 0x10, 0x57, 0x00, 0x00,
  0xbc, 0x56, 0x00, 0x00, 0x28, 0x56, 0x00, 0x00, 0x94, 0x55, 0x00, 0x00,
  0x40, 0x4a, 0x00, 0x00, 0x0c, 0x49, 0x00, 0x00, 0x78, 0x44, 0x00, 0x00,
  0x44, 0x44, 0x00, 0x00, 0xf0, 0x43, 0x00, 0x00, 0xdc, 0x3a, 0x00, 0x00,
  0xa8, 0x3a, 0x00, 0x00, 0x94, 0x28, 0x00, 0x00, 0x60, 0x28, 0x00, 0x00,
  0xcc, 0x27, 0x00, 0x00, 0xb8, 0x03, 0x00, 0x00, 0xa4, 0x03, 0x00, 0x00,
  0x70, 0x03, 0x00, 0x00, 0x64, 0x03, 0x00, 0x00, 0x50, 0x03, 0x00, 0x00,
  0x3c, 0x03, 0x00, 0x00, 0x28, 0x03, 0x00, 0x00, 0x14, 0x03, 0x00, 0x00,
  0x00, 0x03, 0x00, 0x00, 0xec, 0x02, 0x00, 0x00, 0xd8, 0x02, 0x00, 0x00,
  0xc4, 0x02, 0x00, 0x00, 0xb0, 0x02, 0x00, 0x00, 0x9c, 0x02, 0x00, 0x00,
  0x88, 0x02, 0x00, 0x00, 0x74, 0x02, 0x00, 0x00, 0x60, 0x02, 0x00, 0x00,
  0x4c, 0x02, 0x00, 0x00, 0x38, 0x02, 0x00, 0x00, 0x24, 0x02, 0x00, 0x00,
  0x10, 0x02, 0x00, 0x00, 0xfc, 0x01, 0x00, 0x00, 0xe8, 0x01, 0x00, 0x00,
  0xd4, 0x01, 0x00, 0x00, 0xc0, 0x01, 0x00, 0x00, 0xac, 0x01, 0x00, 0x00,
  0x98, 0x01, 0x00, 0x00, 0x84, 0x01, 0x00, 0x00, 0x70, 0x01, 0x00, 0x00,
  0x5c, 0x01, 0x00, 0x00, 0x48, 0x01, 0x00, 0x00, 0x34, 0x01, 0x00, 0x00,
  0x20, 0x01, 0x00, 0x00, 0x0c, 0x01, 0x00, 0x00, 0xf8, 0x00, 0x00, 0x00,
  0xe4, 0x00, 0x00, 0x00, 0xd0, 0x00, 0x00, 0x00, 0xbc, 0x00, 0x00, 0x00,
  0xa8, 0x00, 0x00, 0x00, 0x94, 0x00, 0x00, 0x00, 0x80, 0x00, 0x00, 0x00,
  0x6c, 0x00, 0x00, 0x00, 0x58, 0x00, 0x00, 0x00, 0x44, 0x00, 0x00, 0x00,
  0x30, 0x00, 0x00, 0x00, 0x04, 0x00, 0x00, 0x00, 0xea, 0x9e, 0xff, 0xff,
  0x04, 0x00, 0x00, 0x00, 0x10, 0x00, 0x00, 0x00, 0x31, 0x2e, 0x31, 0x33,
  0x2e, 0x30, 0x00, 0x00, 0x00, 0x00, 0x00, 0x00, 0x00, 0x00, 0x00, 0x00,
  0x00, 0x00, 0x00, 0x00, 0x00, 0x00, 0x00, 0x00, 0x00, 0x00, 0x00, 0x00,
  0xe0, 0x81, 0xff, 0xff, 0x00, 0x00, 0x00, 0x00, 0x00, 0x00, 0x00, 0x00,
  0x00, 0x00, 0x00, 0x00, 0xf0, 0x81, 0xff, 0xff, 0x00, 0x00, 0x00, 0x00,
  0x00, 0x00, 0x00, 0x00, 0x00, 0x00, 0x00, 0x00, 0x00, 0x82, 0xff, 0xff,
  0x00, 0x00, 0x00, 0x00, 0x00, 0x00, 0x00, 0x00, 0x00, 0x00, 0x00, 0x00,
  0x10, 0x82, 0xff, 0xff, 0x00, 0x00, 0x00, 0x00, 0x00, 0x00, 0x00, 0x00,
  0x00, 0x00, 0x00, 0x00, 0x20, 0x82, 0xff, 0xff, 0x00, 0x00, 0x00, 0x00,
  0x00, 0x00, 0x00, 0x00, 0x00, 0x00, 0x00, 0x00, 0x30, 0x82, 0xff, 0xff,
  0x00, 0x00, 0x00, 0x00, 0x00, 0x00, 0x00, 0x00, 0x00, 0x00, 0x00, 0x00,
  0x40, 0x82, 0xff, 0xff, 0x00, 0x00, 0x00, 0x00, 0x00, 0x00, 0x00, 0x00,
  0x00, 0x00, 0x00, 0x00, 0x50, 0x82, 0xff, 0xff, 0x00, 0x00, 0x00, 0x00,
  0x00, 0x00, 0x00, 0x00, 0x00, 0x00, 0x00, 0x00, 0x60, 0x82, 0xff, 0xff,
  0x00, 0x00, 0x00, 0x00, 0x00, 0x00, 0x00, 0x00, 0x00, 0x00, 0x00, 0x00,
  0x70, 0x82, 0xff, 0xff, 0x00, 0x00, 0x00, 0x00, 0x00, 0x00, 0x00, 0x00,
  0x00, 0x00, 0x00, 0x00, 0x80, 0x82, 0xff, 0xff, 0x00, 0x00, 0x00, 0x00,
  0x00, 0x00, 0x00, 0x00, 0x00, 0x00, 0x00, 0x00, 0x90, 0x82, 0xff, 0xff,
  0x00, 0x00, 0x00, 0x00, 0x00, 0x00, 0x00, 0x00, 0x00, 0x00, 0x00, 0x00,
  0xa0, 0x82, 0xff, 0xff, 0x00, 0x00, 0x00, 0x00, 0x00, 0x00, 0x00, 0x00,
  0x00, 0x00, 0x00, 0x00, 0xb0, 0x82, 0xff, 0xff, 0x00, 0x00, 0x00, 0x00,
  0x00, 0x00, 0x00, 0x00, 0x00, 0x00, 0x00, 0x00, 0xc0, 0x82, 0xff, 0xff,
  0x00, 0x00, 0x00, 0x00, 0x00, 0x00, 0x00, 0x00, 0x00, 0x00, 0x00, 0x00,
  0xd0, 0x82, 0xff, 0xff, 0x00, 0x00, 0x00, 0x00, 0x00, 0x00, 0x00, 0x00,
  0x00, 0x00, 0x00, 0x00, 0xe0, 0x82, 0xff, 0xff, 0x00, 0x00, 0x00, 0x00,
  0x00, 0x00, 0x00, 0x00, 0x00, 0x00, 0x00, 0x00, 0xf0, 0x82, 0xff, 0xff,
  0x00, 0x00, 0x00, 0x00, 0x00, 0x00, 0x00, 0x00, 0x00, 0x00, 0x00, 0x00,
  0x00, 0x83, 0xff, 0xff, 0x00, 0x00, 0x00, 0x00, 0x00, 0x00, 0x00, 0x00,
  0x00, 0x00, 0x00, 0x00, 0x10, 0x83, 0xff, 0xff, 0x00, 0x00, 0x00, 0x00,
  0x00, 0x00, 0x00, 0x00, 0x00, 0x00, 0x00, 0x00, 0x20, 0x83, 0xff, 0xff,
  0x00, 0x00, 0x00, 0x00, 0x00, 0x00, 0x00, 0x00, 0x00, 0x00, 0x00, 0x00,
  0x30, 0x83, 0xff, 0xff, 0x00, 0x00, 0x00, 0x00, 0x00, 0x00, 0x00, 0x00,
  0x00, 0x00, 0x00, 0x00, 0x40, 0x83, 0xff, 0xff, 0x00, 0x00, 0x00, 0x00,
  0x00, 0x00, 0x00, 0x00, 0x00, 0x00, 0x00, 0x00, 0x50, 0x83, 0xff, 0xff,
  0x00, 0x00, 0x00, 0x00, 0x00, 0x00, 0x00, 0x00, 0x00, 0x00, 0x00, 0x00,
  0x60, 0x83, 0xff, 0xff, 0x00, 0x00, 0x00, 0x00, 0x00, 0x00, 0x00, 0x00,
  0x00, 0x00, 0x00, 0x00, 0x70, 0x83, 0xff, 0xff, 0x00, 0x00, 0x00, 0x00,
  0x00, 0x00, 0x00, 0x00, 0x00, 0x00, 0x00, 0x00, 0x80, 0x83, 0xff, 0xff,
  0x00, 0x00, 0x00, 0x00, 0x00, 0x00, 0x00, 0x00, 0x00, 0x00, 0x00, 0x00,
  0x90, 0x83, 0xff, 0xff, 0x00, 0x00, 0x00, 0x00, 0x00, 0x00, 0x00, 0x00,
  0x00, 0x00, 0x00, 0x00, 0xa0, 0x83, 0xff, 0xff, 0x00, 0x00, 0x00, 0x00,
  0x00, 0x00, 0x00, 0x00, 0x00, 0x00, 0x00, 0x00, 0xb0, 0x83, 0xff, 0xff,
  0x00, 0x00, 0x00, 0x00, 0x00, 0x00, 0x00, 0x00, 0x00, 0x00, 0x00, 0x00,
  0xc0, 0x83, 0xff, 0xff, 0x00, 0x00, 0x00, 0x00, 0x00, 0x00, 0x00, 0x00,
  0x00, 0x00, 0x00, 0x00, 0xd0, 0x83, 0xff, 0xff, 0x00, 0x00, 0x00, 0x00,
  0x00, 0x00, 0x00, 0x00, 0x00, 0x00, 0x00, 0x00, 0xe0, 0x83, 0xff, 0xff,
  0x00, 0x00, 0x00, 0x00, 0x00, 0x00, 0x00, 0x00, 0x00, 0x00, 0x00, 0x00,
  0xf0, 0x83, 0xff, 0xff, 0x00, 0x00, 0x00, 0x00, 0x00, 0x00, 0x00, 0x00,
  0x00, 0x00, 0x00, 0x00, 0x00, 0x84, 0xff, 0xff, 0x00, 0x00, 0x00, 0x00,
  0x00, 0x00, 0x00, 0x00, 0x00, 0x00, 0x00, 0x00, 0x10, 0x84, 0xff, 0xff,
  0x00, 0x00, 0x00, 0x00, 0x00, 0x00, 0x00, 0x00, 0x00, 0x00, 0x00, 0x00,
  0x20, 0x84, 0xff, 0xff, 0x00, 0x00, 0x00, 0x00, 0x00, 0x00, 0x00, 0x00,
  0x00, 0x00, 0x00, 0x00, 0x30, 0x84, 0xff, 0xff, 0x00, 0x00, 0x00, 0x00,
  0x00, 0x00, 0x00, 0x00, 0x00, 0x00, 0x00, 0x00, 0x40, 0x84, 0xff, 0xff,
  0x00, 0x00, 0x00, 0x00, 0x00, 0x00, 0x00, 0x00, 0x00, 0x00, 0x00, 0x00,
  0x50, 0x84, 0xff, 0xff, 0x00, 0x00, 0x00, 0x00, 0x00, 0x00, 0x00, 0x00,
  0x00, 0x00, 0x00, 0x00, 0x60, 0x84, 0xff, 0xff, 0x00, 0x00, 0x00, 0x00,
  0x00, 0x00, 0x00, 0x00, 0x00, 0x00, 0x00, 0x00, 0x70, 0x84, 0xff, 0xff,
  0x00, 0x00, 0x00, 0x00, 0xaa, 0xa1, 0xff, 0xff, 0x04, 0x00, 0x00, 0x00,
  0x24, 0x00, 0x00, 0x00, 0x72, 0x4a, 0x1d, 0x3c, 0xef, 0xd1, 0x1a, 0x3e,
  0xf9, 0x63, 0x21, 0x3e, 0xb8, 0xf0, 0x49, 0x3d, 0xba, 0xbc, 0x0d, 0x3e,
  0x74, 0x26, 0x2f, 0x3e, 0xc1, 0x59, 0x07, 0x3e, 0x33, 0x8e, 0x48, 0x3e,
  0xa3, 0x17, 0xb5, 0x3d, 0xda, 0xa1, 0xff, 0xff, 0x04, 0x00, 0x00, 0x00,
  0x04, 0x00, 0x00, 0x00, 0x00, 0x00, 0x00, 0x00, 0xea, 0xa1, 0xff, 0xff,
  0x04, 0x00, 0x00, 0x00, 0x00, 0x24, 0x00, 0x00, 0x74, 0x8c, 0x8c, 0x8c,
  0x74, 0x8c, 0x74, 0x74, 0x74, 0x8c, 0x74, 0x74, 0x74, 0x8c, 0x8c, 0x8c,
  0x8c, 0x8c, 0x8c, 0x8c, 0x8c, 0x74, 0x74, 0x8c, 0x74, 0x8c, 0x74, 0x74,
  0x8c, 0x74, 0x74, 0x74, 0x8c, 0x8c, 0x74, 0x8c, 0x8c, 0x8c, 0x74, 0x8c,
  0x74, 0x8c, 0x8c, 0x74, 0x74, 0x8c, 0x74, 0x8c, 0x8c, 0x8c, 0x8c, 0x74,
  0x74, 0x8c, 0x74, 0x74, 0x8c, 0x74, 0x74, 0x8c, 0x74, 0x8c, 0x8c, 0x8c,
  0x8c, 0x8c, 0x8c, 0x8c, 0x74, 0x8c, 0x8c, 0x74, 0x74, 0x74, 0x74, 0x8c,
  0x74, 0x74, 0x74, 0x8c, 0x74, 0x8c, 0x74, 0x74, 0x74, 0x8c, 0x74, 0x74,
  0x74, 0x74, 0x74, 0x74, 0x74, 0x74, 0x74, 0x74, 0x8c, 0x8c, 0x8c, 0x8c,
  0x74, 0x8c, 0x74, 0x74, 0x74, 0x74, 0x8c, 0x74, 0x74, 0x74, 0x8c, 0x74,
  0x74, 0x74, 0x74, 0x8c, 0x8c, 0x8c, 0x74, 0x8c, 0x74, 0x8c, 0x8c, 0x8c,
  0x8c, 0x74, 0x74, 0x74, 0x8c, 0x74, 0x8c, 0x8c, 0x8c, 0x8c, 0x74, 0x8c,
  0x8c, 0x8c, 0x8c, 0x74, 0x8c, 0x8c, 0x74, 0x74, 0x74, 0x8c, 0x8c, 0x74,
  0x74, 0x8c, 0x8c, 0x74, 0x8c, 0x74, 0x8c, 0x8c, 0x8c, 0x8c, 0x8c, 0x74,
  0x8c, 0x8c, 0x8c, 0x8c, 0x8c, 0x8c, 0x8c, 0x74, 0x74, 0x74, 0x8c, 0x8c,
  0x74, 0x8c, 0x8c, 0x8c, 0x74, 0x8c, 0x8c, 0x74, 0x8c, 0x8c, 0x74, 0x74,
  0x74, 0x8c, 0x74, 0x74, 0x8c, 0x74, 0x74, 0x74, 0x8c, 0x8c, 0x8c, 0x74,
  0x74, 0x8c, 0x74, 0x74, 0x74, 0x8c, 0x8c, 0x74, 0x74, 0x74, 0x74, 0x8c,
  0x74, 0x8c, 0x74, 0x8c, 0x8c, 0x74, 0x74, 0x8c, 0x8c, 0x8c, 0x74, 0x8c,
  0x74, 0x74, 0x74, 0x74, 0x8c, 0x8c, 0x8c, 0x74, 0x74, 0x74, 0x74, 0x8c,
  0x8c, 0x8c, 0x74, 0x8c, 0x8c, 0x8c, 0x74, 0x8c, 0x74, 0x8c, 0x8c, 0x74,
  0x74, 0x8c, 0x8c, 0x74, 0x74, 0x8c, 0x8c, 0x8c, 0x74, 0x8c, 0x8c, 0x74,
  0x8c, 0x8c, 0x8c, 0x8c, 0x74, 0x8c, 0x8c, 0x74, 0x74, 0x74, 0x74, 0x8c,
  0x74, 0x8c, 0x74, 0x8c, 0x74, 0x8c, 0x8c, 0x74, 0x74, 0x8c, 0x74, 0x74,
  0x74, 0x8c, 0x8c, 0x74, 0x8c, 0x74, 0x8c, 0x74, 0x9a, 0x66, 0x66, 0x9a,
  0x66, 0x9a, 0x9a, 0x66, 0x66, 0x66, 0x66, 0x66, 0x66, 0x9a, 0x66, 0x9a,
  0x66, 0x66, 0x9a, 0x9a, 0x66, 0x9a, 0x9a, 0x66, 0x66, 0x66, 0x66, 0x66,
  0x66, 0x9a, 0x9a, 0x66, 0x66, 0x66, 0x66, 0x9a, 0x66, 0x66, 0x9a, 0x9a,
  0x9a, 0x66, 0x9a, 0x66, 0x9a, 0x66, 0x9a, 0x9a, 0x66, 0x66, 0x66, 0x9a,
  0x9a, 0x9a, 0x9a, 0x9a, 0x66, 0x9a, 0x66, 0x66, 0x66, 0x66, 0x66, 0x9a,
  0x9a, 0x66, 0x9a, 0x66, 0x9a, 0x9a, 0x9a, 0x9a, 0x66, 0x9a, 0x66, 0x66,
  0x9a, 0x9a, 0x66, 0x66, 0x66, 0x9a, 0x9a, 0x66, 0x9a, 0x9a, 0x9a, 0x9a,
  0x9a, 0x66, 0x66, 0x9a, 0x66, 0x9a, 0x9a, 0x9a, 0x66, 0x9a, 0x9a, 0x9a,
  0x9a, 0x66, 0x66, 0x66, 0x9a, 0x66, 0x66, 0x9a, 0x66, 0x66, 0x66, 0x9a,
  0x9a, 0x66, 0x66, 0x9a, 0x66, 0x66, 0x9a, 0x66, 0x66, 0x66, 0x66, 0x9a,
  0x66, 0x66, 0x9a, 0x66, 0x9a, 0x66, 0x66, 0x66, 0x66, 0x66, 0x66, 0x9a,
  0x66, 0x66, 0x66, 0x9a, 0x9a, 0x66, 0x66, 0x66, 0x9a, 0x66, 0x66, 0x9a,
  0x66, 0x9a, 0x9a, 0x9a, 0x66, 0x66, 0x9a, 0x9a, 0x9a, 0x9a, 0x66, 0x66,
  0x9a, 0x66, 0x9a, 0x66, 0x9a, 0x66, 0x66, 0x9a, 0x66, 0x9a, 0x66, 0x9a,
  0x9a, 0x9a, 0x66, 0x66, 0x66, 0x66, 0x9a, 0x66, 0x9a, 0x9a, 0x9a, 0x66,
  0x9a, 0x66, 0x66, 0x9a, 0x66, 0x9a, 0x9a, 0x9a, 0x66, 0x9a, 0x9a, 0x9a,
  0x66, 0x66, 0x9a, 0x9a, 0x66, 0x66, 0x66, 0x66, 0x9a, 0x9a, 0x66, 0x9a,
  0x66, 0x9a, 0x66, 0x9a, 0x66, 0x66, 0x9a, 0x66, 0x66, 0x66, 0x9a, 0x66,
  0x66, 0x66, 0x66, 0x66, 0x66, 0x66, 0x66, 0x66, 0x66, 0x66, 0x66, 0x9a,
  0x9a, 0x66, 0x66, 0x66, 0x9a, 0x9a, 0x9a, 0x66, 0x66, 0x66, 0x66, 0x66,
  0x66, 0x66, 0x9a, 0x9a, 0x9a, 0x66, 0x66, 0x66, 0x9a, 0x66, 0x66, 0x66,
  0x9a, 0x66, 0x66, 0x66, 0x66, 0x66, 0x66, 0x9a, 0x9a, 0x9a, 0x9a, 0x66,
  0x9a, 0x9a, 0x9a, 0x66, 0x66, 0x66, 0x9a, 0x66, 0x66, 0x9a, 0x9a, 0x9a,
  0x9a, 0x9a, 0x9a, 0x9a, 0x9a, 0x9a, 0x9a, 0x9a, 0xa7, 0x59, 0x59, 0x59,
  0x59, 0x59, 0xa7, 0xa7, 0xa7, 0xa7, 0x59, 0xa7, 0xa7, 0xa7, 0xa7, 0x59,
  0xa7, 0x59, 0xa7, 0x59, 0x59, 0x59, 0xa7, 0xa7, 0xa7, 0x59, 0x59, 0xa7,
  0x59, 0x59, 0xa7, 0xa7, 0x59, 0x59, 0x59, 0x59, 0x59, 0xa7, 0xa7, 0x59,
  0x59, 0xa7, 0x59, 0xa7, 0xa7, 0xa7, 0x59, 0xa7, 0x59, 0x59, 0xa7, 0x59,
  0x59, 0xa7, 0x59, 0x59, 0x59, 0x59, 0x59, 0x59, 0x59, 0xa7, 0xa7, 0x59,
  0xa7, 0x59, 0xa7, 0xa7, 0x59, 0x59, 0x59, 0xa7, 0xa7, 0xa7, 0x59, 0xa7,
  0xa7, 0xa7, 0x59, 0x59, 0x59, 0x59, 0x59, 0x59, 0x59, 0xa7, 0x59, 0x59,
  0x59, 0x59, 0xa7, 0x59, 0x59, 0x59, 0xa7, 0x59, 0xa7, 0x59, 0xa7, 0x59,
  0x59, 0xa7, 0xa7, 0x59, 0xa7, 0xa7, 0x59, 0xa7, 0xa7, 0xa7, 0xa7, 0xa7,
  0xa7, 0xa7, 0xa7, 0xa7, 0x59, 0x59, 0xa7, 0xa7, 0x59, 0xa7, 0x59, 0x59,
  0x59, 0xa7, 0xa7, 0x59, 0x59, 0x59, 0xa7, 0x59, 0x59, 0x59, 0xa7, 0xa7,
  0x59, 0xa7, 0x59, 0x59, 0xa7, 0xa7, 0x59, 0x59, 0x59, 0x59, 0xa7, 0x59,
  0x59, 0xa7, 0xa7, 0x59, 0xa7, 0xa7, 0x59, 0x59, 0xa7, 0xa7, 0xa7, 0x59,
  0xa7, 0xa7, 0x59, 0x59, 0x59, 0x59, 0xa7, 0x59, 0xa7, 0x59, 0x59, 0xa7,
  0xa7, 0xa7, 0x59, 0xa7, 0x59, 0xa7, 0x59, 0x59, 0x59, 0xa7, 0x59, 0x59,
  0x59, 0x59, 0x59, 0x59, 0x59, 0x59, 0xa7, 0x59, 0x59, 0xa7, 0xa7, 0x59,
  0x59, 0xa7, 0xa7, 0xa7, 0x59, 0xa7, 0x59, 0x59, 0xa7, 0xa7, 0x59, 0x59,
  0xa7, 0x59, 0xa7, 0x59, 0x59, 0xa7, 0xa7, 0xa7, 0xa7, 0x59, 0x59, 0x59,
  0x59, 0xa7, 0xa7, 0x59, 0x59, 0x59, 0x59, 0x59, 0x59, 0x59, 0xa7, 0x59,
  0x59, 0xa7, 0x59, 0xa7, 0xa7, 0xa7, 0x59, 0x59, 0xa7, 0x59, 0xa7, 0xa7,
  0xa7, 0xa7, 0xa7, 0x59, 0x59, 0xa7, 0xa7, 0xa7, 0x59, 0xa7, 0x59, 0x59,
  0xa7, 0xa7, 0xa7, 0xa7, 0x59, 0x59, 0xa7, 0x59, 0x59, 0x59, 0x59, 0xa7,
  0xa7, 0xa7, 0x59, 0xa7, 0x59, 0x59, 0x59, 0x59, 0x59, 0xa7, 0x59, 0x59,
  0x59, 0xa7, 0x59, 0x59, 0x59, 0x59, 0xa7, 0x59, 0x59, 0xa7, 0xa7, 0xa7,
  0x59, 0xa7, 0x59, 0x59, 0x59, 0xa7, 0x59, 0xa7, 0x59, 0xa7, 0xa7, 0x59,
  0x59, 0x59, 0xa7, 0x59, 0xa7, 0xa7, 0xa7, 0xa7, 0x59, 0xa7, 0xa7, 0x59,
  0xa7, 0xa7, 0xa7, 0xa7, 0x59, 0x59, 0xa7, 0x59, 0xa7, 0xa7, 0xa7, 0xa7,
  0xa7, 0x59, 0x59, 0xa7, 0xa7, 0x59, 0xa7, 0x59, 0xa7, 0x59, 0xa7, 0x59,
  0x59, 0xa7, 0xa7, 0xa7, 0x59, 0xa7, 0xa7, 0xa7, 0xa7, 0x59, 0xa7, 0x59,
  0xa7, 0x59, 0x59, 0x59, 0xa7, 0x59, 0x59, 0x59, 0xa7, 0xa7, 0x59, 0xa7,
  0x59, 0x59, 0xa7, 0x59, 0xa7, 0x59, 0x59, 0x59, 0xa7, 0x59, 0xa7, 0xa7,
  0xa7, 0xa7, 0xa7, 0xa7, 0x59, 0x59, 0x59, 0x59, 0xa7, 0x59, 0x59, 0x59,
  0xa7, 0xa7, 0xa7, 0xa7, 0xa7, 0xa7, 0x59, 0xa7, 0xa7, 0xa7, 0x59, 0xa7,
  0x59, 0xa7, 0x59, 0xa7, 0x59, 0xa7, 0x59, 0x59, 0xa7, 0xa7, 0x59, 0x59,
  0x59, 0xa7, 0x59, 0x59, 0x59, 0xa7, 0xa7, 0xa7, 0x59, 0xa7, 0xa7, 0x59,
  0x59, 0xa7, 0x59, 0x59, 0xa7, 0x59, 0x59, 0xa7, 0x59, 0xa7, 0xa7, 0x59,
  0x59, 0x59, 0xa7, 0x59, 0x59, 0xa7, 0x59, 0x59, 0xa7, 0xa7, 0xa7, 0x59,
  0x59, 0xa7, 0x59, 0x59, 0x59, 0x59, 0xa7, 0xa7, 0xa7, 0xa7, 0x59, 0xa7,
  0xa7, 0xa7, 0x59, 0x59, 0x59, 0x59, 0xa7, 0xa7, 0x59, 0x59, 0xa7, 0x59,
  0x59, 0x59, 0x59, 0x59, 0x59, 0x59, 0xa7, 0x59, 0x59, 0xa7, 0x59, 0x59,
  0xa7, 0xa7, 0xa7, 0x59, 0xa7, 0xa7, 0x59, 0x59, 0x59, 0xa7, 0x59, 0xa7,
  0xa7, 0x59, 0x59, 0x59, 0xa7, 0x59, 0xa7, 0xa7, 0xa7, 0xa7, 0x59, 0xa7,
  0x59, 0x59, 0xa7, 0xa7, 0x59, 0xa7, 0x59, 0xa7, 0x59, 0xa7, 0x59, 0xa7,
  0x59, 0xa7, 0x59, 0x59, 0x59, 0x59, 0x59, 0xa7, 0x59, 0xa7, 0x59, 0xa7,
  0x59, 0x59, 0x59, 0x59, 0x59, 0xa7, 0x59, 0x59, 0x59, 0x59, 0x59, 0x59,
  0x59, 0xa7, 0xa7, 0xa7, 0xa7, 0x59, 0xa7, 0xa7, 0x59, 0xa7, 0x59, 0x59,
  0xa7, 0xa7, 0x59, 0x59, 0x59, 0xa7, 0xa7, 0xa7, 0xa7, 0xa7, 0xa7, 0x59,
  0x59, 0x59, 0xa7, 0x59, 0x59, 0xa7, 0xa7, 0x59, 0x57, 0x57, 0xa9, 0x57,
  0xa9, 0x57, 0xa9, 0x57, 0xa9, 0xa9, 0xa9, 0xa9, 0x57, 0xa9, 0xa9, 0x57,
  0xa9, 0x57, 0x57, 0x57, 0x57, 0xa9, 0xa9, 0xa9, 0x57, 0xa9, 0x57, 0xa9,
  0xa9, 0xa9, 0xa9, 0x57, 0x57, 0xa9, 0x57, 0x57, 0x57, 0xa9, 0x57, 0xa9,
  0x57, 0x57, 0x57, 0x57, 0x57, 0x57, 0x57, 0xa9, 0xa9, 0x57, 0xa9, 0x57,
  0x57, 0x57, 0x57, 0xa9, 0xa9, 0x57, 0x57, 0xa9, 0x57, 0x57, 0x57, 0xa9,
  0x57, 0x57, 0xa9, 0x57, 0xa9, 0xa9, 0xa9, 0x57, 0x57, 0x57, 0xa9, 0x57,
  0x57, 0x57, 0xa9, 0x57, 0xa9, 0xa9, 0x57, 0xa9, 0x57, 0x57, 0x57, 0xa9,
  0x57, 0x57, 0x57, 0x57, 0xa9, 0x57, 0x57, 0x57, 0x57, 0x57, 0xa9, 0x57,
  0xa9, 0xa9, 0xa9, 0xa9, 0xa9, 0x57, 0xa9, 0xa9, 0xa9, 0xa9, 0xa9, 0xa9,
  0xa9, 0x57, 0xa9, 0x57, 0x57, 0xa9, 0x57, 0x57, 0x57, 0xa9, 0xa9, 0x57,
  0xa9, 0xa9, 0xa9, 0x57, 0x57, 0x57, 0x57, 0x57, 0x57, 0x57, 0xa9, 0xa9,
  0xa9, 0x57, 0x57, 0xa9, 0x57, 0x57, 0xa9, 0xa9, 0xa9, 0x57, 0xa9, 0x57,
  0xa9, 0xa9, 0xa9, 0x57, 0xa9, 0xa9, 0xa9, 0xa9, 0xa9, 0x57, 0x57, 0xa9,
  0x57, 0x57, 0x57, 0x57, 0x57, 0x57, 0x57, 0x57, 0x57, 0x57, 0xa9, 0x57,
  0x57, 0x57, 0x57, 0x57, 0xa9, 0x57, 0x57, 0x57, 0x57, 0x57, 0x57, 0x57,
  0xa9, 0x57, 0x57, 0xa9, 0xa9, 0x57, 0x57, 0x57, 0xa9, 0xa9, 0x57, 0xa9,
  0x57, 0x57, 0xa9, 0xa9, 0x57, 0xa9, 0x57, 0xa9, 0xa9, 0xa9, 0x57, 0xa9,
  0x57, 0xa9, 0xa9, 0x57, 0x57, 0xa9, 0xa9, 0x57, 0x57, 0xa9, 0xa9, 0x57,
  0xa9, 0xa9, 0xa9, 0x57, 0x57, 0x57, 0x57, 0x57, 0xa9, 0x57, 0xa9, 0x57,
  0xa9, 0x57, 0x57, 0xa9, 0xa9, 0xa9, 0xa9, 0x57, 0xa9, 0x57, 0xa9, 0x57,
  0xa9, 0x57, 0xa9, 0x57, 0xa9, 0x57, 0xa9, 0x57, 0x57, 0xa9, 0x57, 0x57,
  0x57, 0x57, 0x57, 0x57, 0xa9, 0x57, 0x57, 0x57, 0xa9, 0x57, 0xa9, 0x57,
  0xa9, 0x57, 0x57, 0x57, 0x57, 0x57, 0xa9, 0x57, 0xa9, 0x57, 0xa9, 0x57,
  0x57, 0x57, 0xa9, 0xa9, 0xa9, 0xa9, 0x57, 0x57, 0x50, 0x50, 0x50, 0x50,
  0x50, 0x50, 0x50, 0x50, 0x50, 0x50, 0x50, 0x50, 0x50, 0x50, 0x50, 0xb0,
  0x50, 0xb0, 0x50, 0xb0, 0x50, 0xb0, 0x50, 0xb0, 0x50, 0xb0, 0x50, 0x50,
  0x50, 0xb0, 0xb0, 0x50, 0xb0, 0x50, 0x50, 0xb0, 0x50, 0x50, 0x50, 0x50,
  0x50, 0x50, 0xb0, 0x50, 0x50, 0xb0, 0xb0, 0xb0, 0x50, 0x50, 0xb0, 0xb0,
  0x50, 0xb0, 0x50, 0x50, 0x50, 0x50, 0x50, 0x50, 0xb0, 0x50, 0x50, 0x50,
  0x50, 0x50, 0x50, 0xb0, 0x50, 0x50, 0xb0, 0x50, 0x50, 0x50, 0xb0, 0x50,
  0xb0, 0x50, 0xb0, 0xb0, 0xb0, 0x50, 0x50, 0xb0, 0x50, 0x50, 0x50, 0xb0,
  0x50, 0x50, 0x50, 0xb0, 0xb0, 0x50, 0xb0, 0xb0, 0x50, 0xb0, 0x50, 0xb0,
  0x50, 0x50, 0xb0, 0xb0, 0x50, 0xb0, 0xb0, 0x50, 0x50, 0x50, 0x50, 0xb0,
  0x50, 0xb0, 0xb0, 0xb0, 0xb0, 0x50, 0xb0, 0x50, 0x50, 0xb0, 0x50, 0x50,
  0xb0, 0x50, 0x50, 0x50, 0x50, 0x50, 0x50, 0xb0, 0x50, 0xb0, 0xb0, 0xb0,
  0xb0, 0x50, 0x50, 0x50, 0x50, 0x50, 0x50, 0xb0, 0x50, 0xb0, 0xb0, 0xb0,
  0x50, 0x50, 0x50, 0xb0, 0x50, 0xb0, 0x50, 0xb0, 0x50, 0x50, 0x50, 0x50,
  0x50, 0xb0, 0x50, 0xb0, 0x50, 0x50, 0xb0, 0xb0, 0xb0, 0xb0, 0xb0, 0x50,
  0xb0, 0x50, 0x50, 0xb0, 0xb0, 0xb0, 0x50, 0xb0, 0x50, 0x50, 0xb0, 0x50,
  0x50, 0x50, 0x50, 0x50, 0xb0, 0xb0, 0x50, 0x50, 0x50, 0xb0, 0xb0, 0x50,
  0x50, 0xb0, 0x50, 0x50, 0xb0, 0x50, 0xb0, 0x50, 0x50, 0x50, 0x50, 0x50,
  0x50, 0xb0, 0xb0, 0xb0, 0xb0, 0x50, 0x50, 0x50, 0xb0, 0xb0, 0x50, 0x50,
  0xb0, 0x50, 0x50, 0xb0, 0x50, 0xb0, 0xb0, 0xb0, 0x50, 0x50, 0x50, 0x50,
  0x50, 0x50, 0x50, 0x50, 0x50, 0xb0, 0x50, 0x50, 0xb0, 0xb0, 0x50, 0xb0,
  0xb0, 0x50, 0xb0, 0xb0, 0xb0, 0xb0, 0x50, 0x50, 0xb0, 0x50, 0x50, 0xb0,
  0xb0, 0xb0, 0xb0, 0xb0, 0xb0, 0xb0, 0x50, 0xb0, 0x50, 0xb0, 0x50, 0x50,
  0x50, 0x50, 0x50, 0xb0, 0x50, 0xb0, 0x50, 0xb0, 0x50, 0xb0, 0x50, 0xb0,
  0x50, 0xb0, 0x50, 0x50, 0xb0, 0x50, 0x50, 0xb0, 0xb2, 0xb2, 0x4e, 0xb2,
  0x4e, 0x4e, 0x4e, 0xb2, 0x4e, 0xb2, 0x4e, 0x4e, 0x4e, 0x4e, 0x4e, 0xb2,
  0xb2, 0xb2, 0xb2, 0xb2, 0xb2, 0xb2, 0x4e, 0x4e, 0x4e, 0xb2, 0x4e, 0xb2,
  0x4e, 0x4e, 0xb2, 0xb2, 0xb2, 0xb2, 0xb2, 0xb2, 0x4e, 0xb2, 0xb2, 0x4e,
  0xb2, 0x4e, 0x4e, 0xb2, 0x4e, 0xb2, 0x4e, 0xb2, 0xb2, 0xb2, 0x4e, 0x4e,
  0xb2, 0xb2, 0x4e, 0x4e, 0x4e, 0x4e, 0x4e, 0x4e, 0xb2, 0x4e, 0xb2, 0x4e,
  0x4e, 0xb2, 0xb2, 0xb2, 0x4e, 0x4e, 0xb2, 0xb2, 0x4e, 0xb2, 0x4e, 0xb2,
  0xb2, 0x4e, 0x4e, 0xb2, 0x4e, 0xb2, 0xb2, 0x4e, 0xb2, 0xb2, 0x4e, 0x4e,
  0x4e, 0x4e, 0xb2, 0x4e, 0x4e, 0x4e, 0xb2, 0x4e, 0xb2, 0xb2, 0xb2, 0xb2,
  0xb2, 0xb2, 0xb2, 0xb2, 0xb2, 0xb2, 0xb2, 0xb2, 0xb2, 0xb2, 0xb2, 0xb2,
  0xb2, 0xb2, 0xb2, 0xb2, 0x4e, 0xb2, 0x4e, 0xb2, 0x4e, 0x4e, 0x4e, 0xb2,
  0xb2, 0xb2, 0xb2, 0x4e, 0x4e, 0xb2, 0xb2, 0x4e, 0xb2, 0xb2, 0x4e, 0x4e,
  0xb2, 0x4e, 0xb2, 0xb2, 0x4e, 0xb2, 0x4e, 0xb2, 0xb2, 0x4e, 0x4e, 0xb2,
  0xb2, 0xb2, 0xb2, 0x4e, 0x4e, 0x4e, 0xb2, 0x4e, 0x4e, 0xb2, 0xb2, 0x4e,
  0x4e, 0x4e, 0x4e, 0x4e, 0xb2, 0x4e, 0xb2, 0x4e, 0x4e, 0x4e, 0x4e, 0xb2,
  0x4e, 0x4e, 0x4e, 0xb2, 0xb2, 0x4e, 0x4e, 0xb2, 0xb2, 0x4e, 0x4e, 0xb2,
  0x4e, 0x4e, 0x4e, 0x4e, 0x4e, 0x4e, 0xb2, 0x4e, 0x4e, 0xb2, 0xb2, 0xb2,
  0x4e, 0xb2, 0x4e, 0xb2, 0x4e, 0xb2, 0xb2, 0x4e, 0xb2, 0xb2, 0x4e, 0xb2,
  0xb2, 0xb2, 0xb2, 0xb2, 0x4e, 0xb2, 0xb2, 0xb2, 0x4e, 0x4e, 0xb2, 0x4e,
  0x4e, 0xb2, 0xb2, 0xb2, 0xb2, 0x4e, 0x4e, 0xb2, 0x4e, 0x4e, 0xb2, 0x4e,
  0x4e, 0x4e, 0x4e, 0xb2, 0xb2, 0xb2, 0xb2, 0xb2, 0x4e, 0x4e, 0xb2, 0x4e,
  0xb2, 0xb2, 0xb2, 0xb2, 0x4e, 0x4e, 0xb2, 0xb2, 0xb2, 0xb2, 0xb2, 0x4e,
  0xb2, 0x4e, 0x4e, 0xb2, 0x4e, 0x4e, 0xb2, 0x4e, 0x4e, 0x4e, 0xb2, 0xb2,
  0x4e, 0x4e, 0xb2, 0xb2, 0xb2, 0x4e, 0x4e, 0xb2, 0xb2, 0x4e, 0x4e, 0xb2,
  0xb2, 0xb2, 0x4e, 0xb2, 0x4e, 0x4e, 0x4e, 0xb2, 0x60, 0x60, 0x60, 0x60,
  0x60, 0x60, 0x60, 0x60, 0x60, 0x60, 0x60, 0x60, 0x60, 0x60, 0x60, 0x60,
  0x60, 0xa0, 0x60, 0xa0, 0xa0, 0x60, 0xa0, 0x60, 0x60, 0x60, 0xa0, 0x60,
  0x60, 0xa0, 0x60, 0xa0, 0xa0, 0x60, 0xa0, 0x60, 0xa0, 0x60, 0x60, 0xa0,
  0x60, 0xa0, 0xa0, 0x60, 0x60, 0x60, 0xa0, 0x60, 0x60, 0x60, 0xa0, 0x60,
  0x60, 0x60, 0xa0, 0xa0, 0xa0, 0xa0, 0x60, 0xa0, 0x60, 0xa0, 0xa0, 0xa0,
  0xa0, 0xa0, 0xa0, 0xa0, 0x60, 0xa0, 0xa0, 0xa0, 0x60, 0x60, 0x60, 0xa0,
  0x60, 0xa0, 0xa0, 0xa0, 0x60, 0xa0, 0xa0, 0xa0, 0x60, 0xa0, 0xa0, 0xa0,
  0x60, 0xa0, 0x60, 0x60, 0x60, 0xa0, 0xa0, 0x60, 0xa0, 0x60, 0xa0, 0x60,
  0x60, 0x60, 0x60, 0x60, 0x60, 0xa0, 0x60, 0x60, 0x60, 0x60, 0x60, 0x60,
  0x60, 0x60, 0x60, 0x60, 0x60, 0x60, 0x60, 0xa0, 0x60, 0x60, 0x60, 0x60,
  0x60, 0x60, 0x60, 0x60, 0xa0, 0x60, 0xa0, 0xa0, 0x60, 0xa0, 0x60, 0xa0,
  0xa0, 0xa0, 0xa0, 0x60, 0x60, 0xa0, 0xa0, 0xa0, 0xa0, 0x60, 0xa0, 0x60,
  0xa0, 0x60, 0x60, 0x60, 0xa0, 0x60, 0x60, 0xa0, 0xa0, 0x60, 0xa0, 0xa0,
  0x60, 0x60, 0xa0, 0xa0, 0x60, 0xa0, 0xa0, 0x60, 0xa0, 0x60, 0xa0, 0xa0,
  0x60, 0xa0, 0xa0, 0xa0, 0x60, 0xa0, 0xa0, 0xa0, 0x60, 0x60, 0xa0, 0xa0,
  0x60, 0xa0, 0x60, 0x60, 0xa0, 0x60, 0xa0, 0xa0, 0x60, 0x60, 0xa0, 0x60,
  0x60, 0x60, 0x60, 0xa0, 0xa0, 0x60, 0xa0, 0x60, 0xa0, 0xa0, 0xa0, 0x60,
  0xa0, 0x60, 0x60, 0x60, 0x60, 0x60, 0xa0, 0x60, 0xa0, 0x60, 0xa0, 0xa0,
  0xa0, 0x60, 0x60, 0x60, 0xa0, 0x60, 0x60, 0x60, 0x60, 0xa0, 0xa0, 0xa0,
  0xa0, 0xa0, 0xa0, 0xa0, 0xa0, 0xa0, 0xa0, 0x60, 0xa0, 0x60, 0xa0, 0x60,
  0xa0, 0xa0, 0xa0, 0xa0, 0xa0, 0x60, 0xa0, 0xa0, 0xa0, 0xa0, 0xa0, 0xa0,
  0x60, 0x60, 0x60, 0xa0, 0x60, 0x60, 0xa0, 0x60, 0x60, 0x60, 0xa0, 0xa0,
  0x60, 0xa0, 0x60, 0xa0, 0x60, 0xa0, 0xa0, 0xa0, 0x60, 0x60, 0x60, 0x60,
  0xa0, 0x60, 0x60, 0x60, 0x60, 0x60, 0x60, 0x60, 0x5c, 0xa4, 0x5c, 0xa4,
  0xa4, 0x5c, 0xa4, 0x5c, 0xa4, 0xa4, 0xa4, 0x5c, 0xa4, 0xa4, 0x5c, 0xa4,
  0x5c, 0x5c, 0x5c, 0x5c, 0x5c, 0xa4, 0xa4, 0x5c, 0xa4, 0xa4, 0x5c, 0xa4,
  0x5c, 0x5c, 0xa4, 0xa4, 0x5c, 0xa4, 0xa4, 0xa4, 0xa4, 0xa4, 0xa4, 0xa4,
  0x5c, 0x5c, 0x5c, 0xa4, 0xa4, 0xa4, 0x5c, 0xa4, 0x5c, 0xa4, 0x5c, 0x5c,
  0x5c, 0xa4, 0x5c, 0x5c, 0x5c, 0xa4, 0x5c, 0x5c, 0xa4, 0xa4, 0x5c, 0x5c,
  0xa4, 0x5c, 0x5c, 0xa4, 0x5c, 0x5c, 0x5c, 0x5c, 0xa4, 0x5c, 0xa4, 0xa4,
  0x5c, 0x5c, 0xa4, 0x5c, 0xa4, 0x5c, 0x5c, 0xa4, 0x5c, 0x5c, 0x5c, 0x5c,
  0x5c, 0x5c, 0x5c, 0x5c, 0xa4, 0x5c, 0x5c, 0x5c, 0xa4, 0x5c, 0xa4, 0xa4,
  0xa4, 0xa4, 0x5c, 0xa4, 0xa4, 0xa4, 0xa4, 0x5c, 0x5c, 0xa4, 0x5c, 0x5c,
  0xa4, 0xa4, 0x5c, 0xa4, 0x5c, 0xa4, 0xa4, 0xa4, 0xa4, 0xa4, 0xa4, 0xa4,
  0xa4, 0x5c, 0xa4, 0xa4, 0xa4, 0xa4, 0xa4, 0x5c, 0xa4, 0xa4, 0xa4, 0xa4,
  0x5c, 0xa4, 0x5c, 0xa4, 0xa4, 0xa4, 0xa4, 0xa4, 0xa4, 0xa4, 0x5c, 0x5c,
  0x5c, 0xa4, 0xa4, 0x5c, 0x5c, 0xa4, 0x5c, 0x5c, 0x5c, 0x5c, 0xa4, 0x5c,
  0x5c, 0xa4, 0xa4, 0xa4, 0x5c, 0x5c, 0x5c, 0x5c, 0x5c, 0x5c, 0x5c, 0xa4,
  0x5c, 0x5c, 0xa4, 0xa4, 0x5c, 0x5c, 0x5c, 0xa4, 0x5c, 0x5c, 0x5c, 0x5c,
  0x5c, 0xa4, 0xa4, 0x5c, 0xa4, 0x5c, 0x5c, 0x5c, 0xa4, 0x5c, 0x5c, 0xa4,
  0xa4, 0x5c, 0xa4, 0xa4, 0xa4, 0x5c, 0xa4, 0xa4, 0xa4, 0xa4, 0xa4, 0x5c,
  0xa4, 0xa4, 0xa4, 0x5c, 0x5c, 0xa4, 0xa4, 0xa4, 0xa4, 0xa4, 0xa4, 0xa4,
  0x5c, 0xa4, 0xa4, 0xa4, 0xa4, 0x5c, 0xa4, 0x5c, 0xa4, 0xa4, 0x5c, 0x5c,
  0x5c, 0x5c, 0xa4, 0xa4, 0xa4, 0xa4, 0x5c, 0x5c, 0x5c, 0xa4, 0xa4, 0x5c,
  0x5c, 0xa4, 0xa4, 0x5c, 0x5c, 0x5c, 0x5c, 0xa4, 0x5c, 0xa4, 0xa4, 0x5c,
  0x5c, 0xa4, 0xa4, 0xa4, 0x5c, 0x5c, 0xa4, 0x5c, 0x5c, 0x5c, 0xa4, 0x5c,
  0x5c, 0x5c, 0xa4, 0xa4, 0x5c, 0x5c, 0x5c, 0xa4, 0x5c, 0x5c, 0x5c, 0xa4,
  0x5c, 0xa4, 0x5c, 0x5c, 0xa4, 0x5c, 0x5c, 0x5c, 0x4c, 0x4c, 0x4c, 0x4c,
  0xb4, 0x4c, 0x4c, 0xb4, 0xb4, 0x4c, 0x4c, 0x4c, 0xb4, 0x4c, 0x4c, 0x4c,
  0x4c, 0xb4, 0x4c, 0xb4, 0x4c, 0x4c, 0xb4, 0xb4, 0x4c, 0x4c, 0x4c, 0x4c,
  0xb4, 0xb4, 0x4c, 0x4c, 0xb4, 0xb4, 0x4c, 0x4c, 0xb4, 0x4c, 0x4c, 0x4c,
  0x4c, 0x4c, 0xb4, 0x4c, 0xb4, 0xb4, 0x4c, 0x4c, 0xb4, 0xb4, 0x4c, 0xb4,
  0xb4, 0xb4, 0xb4, 0xb4, 0x4c, 0x4c, 0x4c, 0xb4, 0x4c, 0x4c, 0x4c, 0x4c,
  0x4c, 0xb4, 0x4c, 0x4c, 0x4c, 0x4c, 0x4c, 0x4c, 0x4c, 0x4c, 0x4c, 0x4c,
  0xb4, 0x4c, 0x4c, 0x4c, 0x4c, 0x4c, 0x4c, 0x4c, 0x4c, 0x4c, 0x4c, 0x4c,
  0x4c, 0x4c, 0x4c, 0x4c, 0xb4, 0xb4, 0x4c, 0x4c, 0x4c, 0x4c, 0xb4, 0x4c,
  0x4c, 0x4c, 0x4c, 0x4c, 0x4c, 0x4c, 0x4c, 0x4c, 0x4c, 0x4c, 0x4c, 0x4c,
  0xb4, 0x4c, 0x4c, 0xb4, 0xb4, 0x4c, 0xb4, 0xb4, 0x4c, 0xb4, 0x4c, 0x4c,
  0xb4, 0x4c, 0x4c, 0x4c, 0x4c, 0xb4, 0x4c, 0x4c, 0x4c, 0x4c, 0x4c, 0x4c,
  0x4c, 0x4c, 0xb4, 0x4c, 0xb4, 0x4c, 0xb4, 0xb4, 0x4c, 0xb4, 0x4c, 0x4c,
  0x4c, 0x4c, 0x4c, 0xb4, 0xb4, 0x4c, 0x4c, 0x4c, 0xb4, 0x4c, 0x4c, 0x4c,
  0x4c, 0xb4, 0x4c, 0xb4, 0xb4, 0x4c, 0x4c, 0x4c, 0x4c, 0x4c, 0xb4, 0x4c,
  0x4c, 0xb4, 0xb4, 0xb4, 0x4c, 0xb4, 0x4c, 0xb4, 0x4c, 0x4c, 0x4c, 0x4c,
  0x4c, 0x4c, 0x4c, 0x4c, 0xb4, 0xb4, 0x4c, 0xb4, 0x4c, 0x4c, 0xb4, 0xb4,
  0x4c, 0x4c, 0x4c, 0x4c, 0x4c, 0x4c, 0x4c, 0xb4, 0x4c, 0x4c, 0xb4, 0x4c,
  0xb4, 0xb4, 0xb4, 0xb4, 0xb4, 0x4c, 0x4c, 0xb4, 0xb4, 0xb4, 0x4c, 0x4c,
  0xb4, 0x4c, 0x4c, 0x4c, 0x4c, 0x4c, 0x4c, 0x4c, 0x4c, 0x4c, 0x4c, 0x4c,
  0x4c, 0x4c, 0x4c, 0x4c, 0x4c, 0x4c, 0xb4, 0x4c, 0xb4, 0x4c, 0x4c, 0xb4,
  0xb4, 0x4c, 0x4c, 0xb4, 0x4c, 0xb4, 0x4c, 0xb4, 0xb4, 0x4c, 0x4c, 0xb4,
  0x4c, 0xb4, 0x4c, 0x4c, 0x4c, 0x4c, 0x4c, 0xb4, 0x4c, 0x4c, 0xb4, 0x4c,
  0xb4, 0x4c, 0xb4, 0x4c, 0x4c, 0x4c, 0x4c, 0x4c, 0xb4, 0x4c, 0x4c, 0xb4,
  0xb4, 0x4c, 0xb4, 0xb4, 0xb4, 0xb4, 0x4c, 0xb4, 0x52, 0xae, 0xae, 0x52,
  0xae, 0x52, 0xae, 0x52, 0xae, 0xae, 0x52, 0xae, 0xae, 0x52, 0x52, 0x52,
  0x52, 0xae, 0x52, 0x52, 0x52, 0x52, 0x52, 0x52, 0xae, 0xae, 0xae, 0x52,
  0x52, 0x52, 0x52, 0x52, 0xae, 0x52, 0x52, 0xae, 0xae, 0xae, 0xae, 0xae,
  0xae, 0xae, 0xae, 0xae, 0xae, 0xae, 0xae, 0x52, 0xae, 0x52, 0x52, 0x52,
  0xae, 0xae, 0x52, 0x52, 0xae, 0xae, 0xae, 0xae, 0xae, 0xae, 0xae, 0x52,
  0xae, 0x52, 0xae, 0xae, 0x52, 0xae, 0xae, 0xae, 0xae, 0xae, 0x52, 0xae,
  0xae, 0xae, 0x52, 0xae, 0x52, 0xae, 0xae, 0x52, 0xae, 0xae, 0xae, 0x52,
  0xae, 0x52, 0x52, 0xae, 0x52, 0xae, 0xae, 0xae, 0x52, 0x52, 0xae, 0xae,
  0x52, 0xae, 0xae, 0xae, 0xae, 0xae, 0x52, 0xae, 0x52, 0x52, 0x52, 0x52,
  0x52, 0xae, 0x52, 0x52, 0x52, 0xae, 0xae, 0x52, 0xae, 0x52, 0xae, 0x52,
  0x52, 0xae, 0x52, 0x52, 0x52, 0x52, 0xae, 0xae, 0x52, 0xae, 0xae, 0xae,
  0xae, 0xae, 0xae, 0xae, 0xae, 0xae, 0xae, 0x52, 0xae, 0x52, 0x52, 0x52,
  0x52, 0xae, 0xae, 0x52, 0xae, 0x52, 0xae, 0x52, 0x52, 0x52, 0x52, 0x52,
  0xae, 0xae, 0x52, 0x52, 0x52, 0xae, 0xae, 0xae, 0xae, 0xae, 0xae, 0xae,
  0xae, 0xae, 0xae, 0x52, 0xae, 0x52, 0xae, 0x52, 0x52, 0xae, 0xae, 0xae,
  0xae, 0xae, 0xae, 0xae, 0xae, 0xae, 0xae, 0xae, 0xae, 0x52, 0x52, 0x52,
  0xae, 0xae, 0xae, 0xae, 0xae, 0xae, 0xae, 0xae, 0xae, 0xae, 0x52, 0xae,
  0xae, 0x52, 0xae, 0x52, 0x52, 0xae, 0xae, 0x52, 0xae, 0x52, 0xae, 0xae,
  0x52, 0xae, 0xae, 0xae, 0xae, 0xae, 0x52, 0x52, 0x52, 0xae, 0xae, 0xae,
  0xae, 0xae, 0xae, 0xae, 0xae, 0xae, 0xae, 0xae, 0xae, 0x52, 0x52, 0x52,
  0x52, 0xae, 0xae, 0x52, 0xae, 0x52, 0xae, 0xae, 0x52, 0xae, 0xae, 0xae,
  0x52, 0xae, 0x52, 0x52, 0x52, 0xae, 0xae, 0xae, 0xae, 0xae, 0xae, 0xae,
  0xae, 0xae, 0xae, 0x52, 0xae, 0x52, 0xae, 0x52, 0xae, 0xae, 0xae, 0xae,
  0xae, 0xae, 0xae, 0x52, 0xae, 0x52, 0xae, 0xae, 0x5f, 0xa1, 0x5f, 0xa1,
  0xa1, 0x5f, 0xa1, 0x5f, 0x5f, 0xa1, 0x5f, 0x5f, 0x5f, 0xa1, 0x5f, 0xa1,
  0xa1, 0xa1, 0x5f, 0xa1, 0x5f, 0x5f, 0xa1, 0x5f, 0xa1, 0xa1, 0xa1, 0xa1,
  0x5f, 0x5f, 0x5f, 0xa1, 0xa1, 0xa1, 0xa1, 0xa1, 0x5f, 0x5f, 0x5f, 0x5f,
  0x5f, 0xa1, 0x5f, 0x5f, 0xa1, 0xa1, 0x5f, 0x5f, 0xa1, 0xa1, 0xa1, 0xa1,
  0x5f, 0x5f, 0xa1, 0x5f, 0xa1, 0xa1, 0xa1, 0xa1, 0x5f, 0xa1, 0x5f, 0xa1,
  0xa1, 0xa1, 0xa1, 0x5f, 0xa1, 0xa1, 0x5f, 0xa1, 0xa1, 0xa1, 0x5f, 0xa1,
  0x5f, 0xa1, 0x5f, 0xa1, 0xa1, 0xa1, 0x5f, 0x5f, 0xa1, 0xa1, 0xa1, 0xa1,
  0xa1, 0xa1, 0xa1, 0xa1, 0xa1, 0x5f, 0xa1, 0x5f, 0x5f, 0x5f, 0x5f, 0x5f,
  0xa1, 0x5f, 0x5f, 0xa1, 0x5f, 0x5f, 0xa1, 0x5f, 0x5f, 0x5f, 0x5f, 0x5f,
  0xa1, 0x5f, 0x5f, 0xa1, 0xa1, 0x5f, 0xa1, 0xa1, 0xa1, 0xa1, 0xa1, 0xa1,
  0x5f, 0x5f, 0x5f, 0xa1, 0xa1, 0x5f, 0x5f, 0x5f, 0xa1, 0x5f, 0x5f, 0xa1,
  0xa1, 0x5f, 0xa1, 0x5f, 0xa1, 0xa1, 0x5f, 0x5f, 0xa1, 0x5f, 0xa1, 0x5f,
  0xa1, 0xa1, 0xa1, 0x5f, 0xa1, 0xa1, 0x5f, 0xa1, 0x5f, 0xa1, 0x5f, 0x5f,
  0xa1, 0xa1, 0xa1, 0x5f, 0x5f, 0xa1, 0x5f, 0xa1, 0xa1, 0x5f, 0xa1, 0x5f,
  0xa1, 0xa1, 0x5f, 0xa1, 0x5f, 0x5f, 0xa1, 0x5f, 0x5f, 0xa1, 0xa1, 0xa1,
  0xa1, 0xa1, 0xa1, 0x5f, 0xa1, 0x5f, 0xa1, 0xa1, 0x5f, 0x5f, 0x5f, 0x5f,
  0xa1, 0x5f, 0x5f, 0xa1, 0xa1, 0x5f, 0x5f, 0xa1, 0xa1, 0xa1, 0xa1, 0x5f,
  0xa1, 0x5f, 0xa1, 0x5f, 0x5f, 0xa1, 0xa1, 0x5f, 0xa1, 0x5f, 0xa1, 0xa1,
  0xa1, 0xa1, 0x5f, 0xa1, 0xa1, 0x5f, 0x5f, 0x5f, 0x5f, 0x5f, 0x5f, 0xa1,
  0x5f, 0x5f, 0x5f, 0xa1, 0xa1, 0xa1, 0xa1, 0x5f, 0xa1, 0x5f, 0xa1, 0x5f,
  0xa1, 0xa1, 0xa1, 0xa1, 0xa1, 0x5f, 0xa1, 0xa1, 0x5f, 0xa1, 0xa1, 0xa1,
  0xa1, 0x5f, 0xa1, 0xa1, 0x5f, 0xa1, 0xa1, 0xa1, 0x5f, 0x5f, 0xa1, 0xa1,
  0xa1, 0xa1, 0xa1, 0xa1, 0x5f, 0x5f, 0x5f, 0x5f, 0x5f, 0x5f, 0xa1, 0xa1,
  0xa1, 0xa1, 0x5f, 0x5f, 0xa1, 0x5f, 0xa1, 0x5f, 0x57, 0xa9, 0xa9, 0xa9,
  0x57, 0x57, 0x57, 0x57, 0x57, 0x57, 0xa9, 0x57, 0x57, 0x57, 0xa9, 0x57,
  0xa9, 0x57, 0x57, 0x57, 0xa9, 0x57, 0x57, 0xa9, 0xa9, 0xa9, 0xa9, 0xa9,
  0xa9, 0x57, 0x57, 0xa9, 0x57, 0x57, 0x57, 0xa9, 0xa9, 0xa9, 0x57, 0x57,
  0xa9, 0x57, 0xa9, 0x57, 0x57, 0x57, 0xa9, 0x57, 0xa9, 0xa9, 0x57, 0x57,
  0x57, 0x57, 0xa9, 0xa9, 0xa9, 0xa9, 0xa9, 0xa9, 0xa9, 0x57, 0x57, 0xa9,
  0x57, 0x57, 0x57, 0x57, 0xa9, 0x57, 0x57, 0x57, 0xa9, 0x57, 0xa9, 0x57,
  0x57, 0x57, 0xa9, 0xa9, 0x57, 0x57, 0x57, 0x57, 0xa9, 0x57, 0xa9, 0xa9,
  0xa9, 0x57, 0xa9, 0xa9, 0xa9, 0x57, 0x57, 0xa9, 0x57, 0x57, 0xa9, 0x57,
  0xa9, 0x57, 0x57, 0x57, 0xa9, 0x57, 0xa9, 0xa9, 0xa9, 0x57, 0x57, 0x57,
  0xa9, 0xa9, 0x57, 0xa9, 0xa9, 0xa9, 0xa9, 0xa9, 0xa9, 0xa9, 0x57, 0x57,
  0xa9, 0x57, 0xa9, 0xa9, 0xa9, 0xa9, 0xa9, 0xa9, 0xa9, 0x57, 0x57, 0x57,
  0x57, 0x57, 0xa9, 0x57, 0x57, 0x57, 0x57, 0x57, 0x57, 0xa9, 0x57, 0xa9,
  0xa9, 0x57, 0x57, 0xa9, 0xa9, 0xa9, 0xa9, 0xa9, 0xa9, 0x57, 0x57, 0x57,
  0x57, 0xa9, 0xa9, 0x57, 0xa9, 0x57, 0x57, 0xa9, 0x57, 0x57, 0xa9, 0x57,
  0x57, 0x57, 0xa9, 0x57, 0x57, 0xa9, 0x57, 0x57, 0x57, 0xa9, 0x57, 0xa9,
  0xa9, 0xa9, 0xa9, 0xa9, 0xa9, 0x57, 0x57, 0xa9, 0x57, 0x57, 0x57, 0x57,
  0xa9, 0x57, 0x57, 0x57, 0xa9, 0x57, 0x57, 0xa9, 0xa9, 0x57, 0xa9, 0x57,
  0xa9, 0x57, 0x57, 0xa9, 0x57, 0x57, 0xa9, 0xa9, 0x57, 0x57, 0x57, 0xa9,
  0xa9, 0x57, 0x57, 0xa9, 0x57, 0x57, 0x57, 0x57, 0xa9, 0x57, 0x57, 0x57,
  0x57, 0xa9, 0x57, 0x57, 0xa9, 0x57, 0x57, 0x57, 0x57, 0x57, 0x57, 0x57,
  0x57, 0x57, 0xa9, 0xa9, 0x57, 0x57, 0x57, 0xa9, 0x57, 0x57, 0x57, 0xa9,
  0x57, 0xa9, 0x57, 0x57, 0x57, 0x57, 0x57, 0x57, 0x57, 0x57, 0xa9, 0x57,
  0x57, 0x57, 0xa9, 0x57, 0x57, 0x57, 0x57, 0x57, 0xa9, 0xa9, 0xa9, 0x57,
  0xa9, 0x57, 0x57, 0xa9, 0xa9, 0x57, 0x57, 0x57, 0x99, 0x99, 0x99, 0x99,
  0x67, 0x99, 0x99, 0x99, 0x67, 0x99, 0x67, 0x99, 0x99, 0x67, 0x67, 0x99,
  0x67, 0x67, 0x99, 0x99, 0x67, 0x99, 0x99, 0x67, 0x67, 0x67, 0x99, 0x67,
  0x67, 0x99, 0x99, 0x67, 0x67, 0x67, 0x67, 0x67, 0x67, 0x67, 0x67, 0x67,
  0x99, 0x67, 0x99, 0x99, 0x99, 0x99, 0x99, 0x67, 0x99, 0x67, 0x99, 0x67,
  0x99, 0x67, 0x99, 0x99, 0x67, 0x67, 0x99, 0x67, 0x67, 0x67, 0x99, 0x67,
  0x67, 0x67, 0x67, 0x67, 0x99, 0x67, 0x67, 0x67, 0x99, 0x67, 0x99, 0x67,
  0x67, 0x67, 0x99, 0x67, 0x99, 0x67, 0x67, 0x67, 0x99, 0x67, 0x99, 0x99,
  0x99, 0x67, 0x99, 0x99, 0x99, 0x67, 0x67, 0x67, 0x99, 0x99, 0x99, 0x99,
  0x67, 0x99, 0x99, 0x99, 0x67, 0x99, 0x67, 0x99, 0x99, 0x99, 0x67, 0x99,
  0x67, 0x99, 0x99, 0x99, 0x99, 0x67, 0x67, 0x67, 0x67, 0x99, 0x67, 0x67,
  0x67, 0x67, 0x99, 0x99, 0x99, 0x99, 0x99, 0x99, 0x67, 0x99, 0x99, 0x99,
  0x67, 0x99, 0x67, 0x67, 0x99, 0x67, 0x67, 0x99, 0x67, 0x99, 0x99, 0x99,
  0x67, 0x67, 0x99, 0x67, 0x67, 0x67, 0x67, 0x67, 0x67, 0x67, 0x99, 0x67,
  0x67, 0x99, 0x67, 0x99, 0x67, 0x67, 0x99, 0x67, 0x99, 0x67, 0x67, 0x67,
  0x67, 0x99, 0x99, 0x99, 0x99, 0x99, 0x99, 0x99, 0x99, 0x67, 0x67, 0x99,
  0x67, 0x99, 0x99, 0x67, 0x99, 0x99, 0x99, 0x67, 0x67, 0x67, 0x67, 0x67,
  0x99, 0x67, 0x67, 0x67, 0x99, 0x99, 0x67, 0x67, 0x67, 0x67, 0x67, 0x67,
  0x99, 0x67, 0x99, 0x67, 0x99, 0x99, 0x99, 0x67, 0x99, 0x67, 0x67, 0x99,
  0x67, 0x99, 0x67, 0x99, 0x67, 0x67, 0x99, 0x67, 0x99, 0x99, 0x99, 0x67,
  0x67, 0x67, 0x67, 0x67, 0x67, 0x67, 0x67, 0x99, 0x99, 0x67, 0x67, 0x99,
  0x67, 0x99, 0x67, 0x67, 0x67, 0x67, 0x67, 0x67, 0x67, 0x67, 0x67, 0x67,
  0x67, 0x99, 0x67, 0x99, 0x67, 0x99, 0x67, 0x67, 0x67, 0x67, 0x99, 0x67,
  0x67, 0x67, 0x67, 0x99, 0x99, 0x99, 0x67, 0x99, 0x67, 0x67, 0x67, 0x67,
  0x67, 0x67, 0x67, 0x67, 0x67, 0x67, 0x67, 0x67, 0x59, 0x59, 0x59, 0x59,
  0xa7, 0x59, 0x59, 0x59, 0x59, 0xa7, 0xa7, 0x59, 0x59, 0x59, 0xa7, 0x59,
  0xa7, 0xa7, 0x59, 0xa7, 0x59, 0x59, 0x59, 0x59, 0x59, 0x59, 0x59, 0xa7,
  0xa7, 0x59, 0x59, 0xa7, 0x59, 0xa7, 0xa7, 0x59, 0x59, 0xa7, 0x59, 0x59,
  0xa7, 0x59, 0xa7, 0xa7, 0x59, 0x59, 0x59, 0x59, 0xa7, 0xa7, 0x59, 0xa7,
  0x59, 0x59, 0xa7, 0x59, 0xa7, 0x59, 0x59, 0xa7, 0x59, 0x59, 0x59, 0xa7,
  0x59, 0xa7, 0xa7, 0xa7, 0xa7, 0x59, 0xa7, 0x59, 0xa7, 0x59, 0xa7, 0xa7,
  0xa7, 0x59, 0xa7, 0xa7, 0xa7, 0x59, 0x59, 0xa7, 0x59, 0x59, 0xa7, 0xa7,
  0x59, 0x59, 0x59, 0x59, 0xa7, 0x59, 0x59, 0x59, 0xa7, 0xa7, 0x59, 0x59,
  0xa7, 0x59, 0x59, 0x59, 0x59, 0x59, 0xa7, 0x59, 0x59, 0x59, 0xa7, 0x59,
  0x59, 0xa7, 0x59, 0xa7, 0xa7, 0x59, 0x59, 0xa7, 0x59, 0x59, 0x59, 0xa7,
  0xa7, 0x59, 0x59, 0x59, 0x59, 0xa7, 0x59, 0x59, 0xa7, 0x59, 0x59, 0x59,
  0xa7, 0x59, 0xa7, 0x59, 0x59, 0x59, 0xa7, 0x59, 0xa7, 0xa7, 0x59, 0x59,
  0x59, 0x59, 0x59, 0xa7, 0xa7, 0x59, 0x59, 0xa7, 0xa7, 0x59, 0x59, 0x59,
  0x59, 0xa7, 0x59, 0x59, 0xa7, 0x59, 0x59, 0x59, 0xa7, 0x59, 0xa7, 0x59,
  0xa7, 0xa7, 0xa7, 0xa7, 0xa7, 0x59, 0x59, 0xa7, 0x59, 0x59, 0xa7, 0xa7,
  0xa7, 0x59, 0x59, 0xa7, 0xa7, 0x59, 0x59, 0xa7, 0x59, 0x59, 0x59, 0x59,
  0xa7, 0x59, 0x59, 0xa7, 0x59, 0xa7, 0x59, 0x59, 0x59, 0x59, 0xa7, 0x59,
  0x59, 0xa7, 0x59, 0x59, 0x59, 0xa7, 0x59, 0x59, 0xa7, 0x59, 0x59, 0xa7,
  0xa7, 0x59, 0x59, 0x59, 0x59, 0xa7, 0x59, 0x59, 0x59, 0x59, 0x59, 0x59,
  0x59, 0x59, 0xa7, 0x59, 0x59, 0x59, 0xa7, 0x59, 0xa7, 0x59, 0x59, 0x59,
  0xa7, 0xa7, 0x59, 0xa7, 0x59, 0x59, 0x59, 0x59, 0x59, 0x59, 0x59, 0x59,
  0x59, 0x59, 0x59, 0x59, 0x59, 0x59, 0x59, 0x59, 0x59, 0x59, 0x59, 0x59,
  0x59, 0x59, 0xa7, 0x59, 0x59, 0x59, 0x59, 0x59, 0x59, 0x59, 0x59, 0xa7,
  0xa7, 0x59, 0xa7, 0x59, 0xa7, 0xa7, 0x59, 0x59, 0xa4, 0xa4, 0xa4, 0xa4,
  0xa4, 0xa4, 0x5c, 0x5c, 0xa4, 0xa4, 0x5c, 0xa4, 0xa4, 0xa4, 0x5c, 0x5c,
  0x5c, 0xa4, 0xa4, 0xa4, 0xa4, 0xa4, 0x5c, 0x5c, 0xa4, 0xa4, 0x5c, 0xa4,
  0x5c, 0xa4, 0xa4, 0xa4, 0x5c, 0x5c, 0x5c, 0xa4, 0x5c, 0xa4, 0x5c, 0x5c,
  0x5c, 0xa4, 0x5c, 0xa4, 0xa4, 0xa4, 0x5c, 0xa4, 0x5c, 0xa4, 0xa4, 0x5c,
  0x5c, 0xa4, 0x5c, 0x5c, 0x5c, 0xa4, 0x5c, 0x5c, 0x5c, 0xa4, 0xa4, 0x5c,
  0x5c, 0x5c, 0xa4, 0xa4, 0x5c, 0x5c, 0xa4, 0x5c, 0x5c, 0x5c, 0x5c, 0x5c,
  0xa4, 0x5c, 0x5c, 0xa4, 0x5c, 0xa4, 0x5c, 0x5c, 0x5c, 0x5c, 0x5c, 0x5c,
  0x5c, 0x5c, 0x5c, 0x5c, 0x5c, 0x5c, 0x5c, 0x5c, 0x5c, 0xa4, 0xa4, 0xa4,
  0xa4, 0xa4, 0xa4, 0xa4, 0xa4, 0x5c, 0x5c, 0xa4, 0xa4, 0xa4, 0xa4, 0x5c,
  0xa4, 0xa4, 0xa4, 0xa4, 0x5c, 0xa4, 0x5c, 0xa4, 0xa4, 0xa4, 0xa4, 0xa4,
  0x5c, 0xa4, 0xa4, 0xa4, 0x5c, 0xa4, 0x5c, 0xa4, 0xa4, 0xa4, 0xa4, 0xa4,
  0xa4, 0xa4, 0x5c, 0xa4, 0xa4, 0xa4, 0x5c, 0xa4, 0xa4, 0xa4, 0xa4, 0xa4,
  0x5c, 0xa4, 0xa4, 0x5c, 0xa4, 0x5c, 0x5c, 0xa4, 0xa4, 0xa4, 0xa4, 0xa4,
  0xa4, 0x5c, 0x5c, 0x5c, 0xa4, 0xa4, 0xa4, 0xa4, 0x5c, 0xa4, 0x5c, 0x5c,
  0xa4, 0xa4, 0x5c, 0xa4, 0x5c, 0xa4, 0x5c, 0xa4, 0xa4, 0x5c, 0x5c, 0x5c,
  0x5c, 0x5c, 0x5c, 0x5c, 0x5c, 0xa4, 0xa4, 0x5c, 0xa4, 0xa4, 0x5c, 0xa4,
  0xa4, 0xa4, 0xa4, 0xa4, 0xa4, 0xa4, 0x5c, 0xa4, 0xa4, 0xa4, 0x5c, 0x5c,
  0xa4, 0x5c, 0xa4, 0xa4, 0x5c, 0xa4, 0xa4, 0x5c, 0xa4, 0x5c, 0x5c, 0x5c,
  0x5c, 0xa4, 0xa4, 0xa4, 0xa4, 0xa4, 0x5c, 0xa4, 0xa4, 0xa4, 0xa4, 0xa4,
  0xa4, 0xa4, 0x5c, 0xa4, 0xa4, 0x5c, 0xa4, 0xa4, 0xa4, 0x5c, 0xa4, 0xa4,
  0xa4, 0x5c, 0x5c, 0xa4, 0xa4, 0x5c, 0xa4, 0xa4, 0xa4, 0x5c, 0xa4, 0x5c,
  0xa4, 0xa4, 0x5c, 0xa4, 0xa4, 0xa4, 0xa4, 0xa4, 0xa4, 0xa4, 0xa4, 0xa4,
  0xa4, 0xa4, 0x5c, 0xa4, 0xa4, 0x5c, 0xa4, 0xa4, 0xa4, 0xa4, 0xa4, 0xa4,
  0x5c, 0x5c, 0xa4, 0xa4, 0x5c, 0xa4, 0xa4, 0xa4, 0x67, 0x67, 0x67, 0x67,
  0x67, 0x67, 0x67, 0x67, 0x99, 0x67, 0x67, 0x99, 0x67, 0x67, 0x99, 0x67,
  0x99, 0x99, 0x67, 0x67, 0x67, 0x99, 0x99, 0x67, 0x99, 0x67, 0x99, 0x99,
  0x67, 0x67, 0x67, 0x99, 0x67, 0x67, 0x67, 0x67, 0x67, 0x67, 0x67, 0x67,
  0x99, 0x67, 0x99, 0x67, 0x67, 0x99, 0x99, 0x67, 0x99, 0x67, 0x67, 0x67,
  0x67, 0x99, 0x99, 0x99, 0x67, 0x67, 0x99, 0x99, 0x99, 0x67, 0x67, 0x99,
  0x67, 0x67, 0x67, 0x67, 0x99, 0x99, 0x67, 0x67, 0x99, 0x67, 0x67, 0x67,
  0x67, 0x67, 0x67, 0x99, 0x99, 0x67, 0x99, 0x99, 0x67, 0x67, 0x67, 0x99,
  0x67, 0x99, 0x99, 0x99, 0x67, 0x67, 0x67, 0x99, 0x67, 0x99, 0x99, 0x67,
  0x67, 0x67, 0x67, 0x99, 0x67, 0x99, 0x99, 0x67, 0x99, 0x99, 0x67, 0x67,
  0x67, 0x67, 0x99, 0x67, 0x67, 0x67, 0x67, 0x67, 0x67, 0x99, 0x99, 0x99,
  0x99, 0x67, 0x99, 0x67, 0x67, 0x67, 0x67, 0x67, 0x67, 0x67, 0x67, 0x99,
  0x99, 0x67, 0x99, 0x99, 0x99, 0x67, 0x99, 0x67, 0x99, 0x67, 0x67, 0x67,
  0x99, 0x99, 0x67, 0x99, 0x99, 0x99, 0x99, 0x99, 0x99, 0x67, 0x99, 0x67,
  0x67, 0x99, 0x67, 0x99, 0x67, 0x67, 0x67, 0x67, 0x99, 0x67, 0x99, 0x99,
  0x67, 0x67, 0x99, 0x67, 0x67, 0x67, 0x67, 0x67, 0x99, 0x67, 0x67, 0x99,
  0x99, 0x67, 0x99, 0x99, 0x99, 0x67, 0x67, 0x99, 0x99, 0x67, 0x99, 0x67,
  0x67, 0x99, 0x99, 0x99, 0x67, 0x67, 0x67, 0x99, 0x99, 0x99, 0x67, 0x99,
  0x67, 0x67, 0x99, 0x67, 0x67, 0x99, 0x67, 0x67, 0x67, 0x99, 0x67, 0x67,
  0x67, 0x99, 0x99, 0x67, 0x99, 0x99, 0x99, 0x99, 0x67, 0x67, 0x99, 0x99,
  0x67, 0x67, 0x67, 0x99, 0x99, 0x99, 0x67, 0x67, 0x67, 0x99, 0x67, 0x67,
  0x67, 0x99, 0x67, 0x67, 0x67, 0x67, 0x99, 0x67, 0x67, 0x99, 0x99, 0x67,
  0x67, 0x67, 0x67, 0x99, 0x67, 0x67, 0x99, 0x67, 0x67, 0x67, 0x99, 0x67,
  0x67, 0x67, 0x99, 0x99, 0x99, 0x67, 0x67, 0x99, 0x67, 0x67, 0x67, 0x67,
  0x67, 0x67, 0x99, 0x67, 0x99, 0x67, 0x67, 0x67, 0xa5, 0x5b, 0x5b, 0x5b,
  0xa5, 0x5b, 0xa5, 0xa5, 0xa5, 0x5b, 0xa5, 0x5b, 0xa5, 0xa5, 0x5b, 0x5b,
  0x5b, 0x5b, 0x5b, 0x5b, 0xa5, 0xa5, 0x5b, 0xa5, 0xa5, 0xa5, 0xa5, 0xa5,
  0xa5, 0xa5, 0x5b, 0x5b, 0xa5, 0xa5, 0xa5, 0xa5, 0xa5, 0xa5, 0xa5, 0xa5,
  0xa5, 0xa5, 0x5b, 0xa5, 0xa5, 0xa5, 0xa5, 0x5b, 0x5b, 0x5b, 0x5b, 0x5b,
  0xa5, 0xa5, 0xa5, 0x5b, 0x5b, 0xa5, 0xa5, 0x5b, 0xa5, 0xa5, 0xa5, 0x5b,
  0xa5, 0xa5, 0xa5, 0x5b, 0x5b, 0xa5, 0xa5, 0xa5, 0xa5, 0xa5, 0x5b, 0xa5,
  0xa5, 0xa5, 0x5b, 0x5b, 0x5b, 0x5b, 0xa5, 0x5b, 0xa5, 0xa5, 0xa5, 0x5b,
  0xa5, 0xa5, 0xa5, 0xa5, 0xa5, 0xa5, 0xa5, 0x5b, 0xa5, 0xa5, 0x5b, 0xa5,
  0x5b, 0xa5, 0xa5, 0xa5, 0x5b, 0xa5, 0xa5, 0xa5, 0xa5, 0xa5, 0x5b, 0x5b,
  0x5b, 0xa5, 0xa5, 0x5b, 0x5b, 0xa5, 0x5b, 0x5b, 0xa5, 0x5b, 0x5b, 0x5b,
  0x5b, 0xa5, 0xa5, 0xa5, 0xa5, 0xa5, 0xa5, 0xa5, 0x5b, 0xa5, 0xa5, 0xa5,
  0xa5, 0xa5, 0x5b, 0xa5, 0xa5, 0x5b, 0xa5, 0xa5, 0x5b, 0xa5, 0x5b, 0xa5,
  0x5b, 0x5b, 0x5b, 0x5b, 0xa5, 0x5b, 0x5b, 0x5b, 0x5b, 0x5b, 0xa5, 0x5b,
  0xa5, 0xa5, 0x5b, 0xa5, 0x5b, 0xa5, 0xa5, 0xa5, 0x5b, 0xa5, 0x5b, 0xa5,
  0x5b, 0x5b, 0xa5, 0xa5, 0x5b, 0x5b, 0xa5, 0xa5, 0x5b, 0x5b, 0xa5, 0x5b,
  0x5b, 0x5b, 0x5b, 0x5b, 0x5b, 0xa5, 0xa5, 0x5b, 0xa5, 0xa5, 0x5b, 0xa5,
  0xa5, 0xa5, 0xa5, 0xa5, 0x5b, 0x5b, 0xa5, 0x5b, 0x5b, 0x5b, 0xa5, 0xa5,
  0xa5, 0x5b, 0x5b, 0xa5, 0x5b, 0xa5, 0x5b, 0xa5, 0xa5, 0xa5, 0x5b, 0x5b,
  0x5b, 0x5b, 0x5b, 0xa5, 0x5b, 0xa5, 0x5b, 0xa5, 0xa5, 0xa5, 0xa5, 0x5b,
  0x5b, 0xa5, 0xa5, 0x5b, 0x5b, 0x5b, 0x5b, 0xa5, 0xa5, 0xa5, 0x5b, 0xa5,
  0x5b, 0xa5, 0x5b, 0xa5, 0xa5, 0xa5, 0x5b, 0xa5, 0xa5, 0x5b, 0x5b, 0xa5,
  0x5b, 0xa5, 0x5b, 0x5b, 0xa5, 0xa5, 0x5b, 0xa5, 0xa5, 0xa5, 0x5b, 0x5b,
  0x5b, 0x5b, 0x5b, 0x5b, 0xa5, 0x5b, 0xa5, 0xa5, 0xa5, 0x5b, 0xa5, 0x5b,
  0xa5, 0x5b, 0xa5, 0xa5, 0x5b, 0xa5, 0xa5, 0xa5, 0x5d, 0xa3, 0x5d, 0x5d,
  0xa3, 0x5d, 0x5d, 0x5d, 0xa3, 0x5d, 0xa3, 0xa3, 0xa3, 0xa3, 0xa3, 0x5d,
  0xa3, 0x5d, 0xa3, 0xa3, 0xa3, 0x5d, 0xa3, 0xa3, 0x5d, 0xa3, 0xa3, 0xa3,
  0xa3, 0x5d, 0x5d, 0x5d, 0x5d, 0xa3, 0x5d, 0x5d, 0xa3, 0x5d, 0x5d, 0xa3,
  0x5d, 0x5d, 0xa3, 0x5d, 0xa3, 0xa3, 0xa3, 0x5d, 0xa3, 0x5d, 0xa3, 0x5d,
  0xa3, 0xa3, 0xa3, 0xa3, 0xa3, 0x5d, 0xa3, 0xa3, 0xa3, 0xa3, 0x5d, 0xa3,
  0x5d, 0x5d, 0x5d, 0x5d, 0xa3, 0x5d, 0x5d, 0x5d, 0xa3, 0x5d, 0xa3, 0xa3,
  0xa3, 0xa3, 0x5d, 0x5d, 0xa3, 0x5d, 0x5d, 0x5d, 0xa3, 0xa3, 0xa3, 0xa3,
  0xa3, 0x5d, 0xa3, 0xa3, 0xa3, 0xa3, 0xa3, 0xa3, 0x5d, 0x5d, 0xa3, 0xa3,
  0x5d, 0x5d, 0x5d, 0xa3, 0xa3, 0x5d, 0xa3, 0xa3, 0xa3, 0xa3, 0x5d, 0x5d,
  0x5d, 0xa3, 0xa3, 0x5d, 0x5d, 0x5d, 0xa3, 0xa3, 0x5d, 0x5d, 0xa3, 0xa3,
  0x5d, 0xa3, 0xa3, 0xa3, 0x5d, 0x5d, 0x5d, 0x5d, 0x5d, 0x5d, 0x5d, 0xa3,
  0x5d, 0xa3, 0x5d, 0xa3, 0xa3, 0xa3, 0xa3, 0x5d, 0x5d, 0xa3, 0xa3, 0x5d,
  0x5d, 0x5d, 0xa3, 0x5d, 0x5d, 0x5d, 0xa3, 0xa3, 0xa3, 0xa3, 0xa3, 0xa3,
  0xa3, 0x5d, 0xa3, 0x5d, 0x5d, 0x5d, 0xa3, 0xa3, 0x5d, 0x5d, 0xa3, 0x5d,
  0xa3, 0xa3, 0xa3, 0x5d, 0x5d, 0xa3, 0xa3, 0x5d, 0x5d, 0xa3, 0x5d, 0x5d,
  0xa3, 0xa3, 0xa3, 0xa3, 0x5d, 0xa3, 0x5d, 0x5d, 0xa3, 0xa3, 0xa3, 0xa3,
  0x5d, 0x5d, 0xa3, 0xa3, 0xa3, 0x5d, 0x5d, 0xa3, 0xa3, 0xa3, 0x5d, 0xa3,
  0x5d, 0xa3, 0xa3, 0xa3, 0x5d, 0xa3, 0xa3, 0x5d, 0x5d, 0x5d, 0xa3, 0x5d,
  0x5d, 0xa3, 0xa3, 0x5d, 0x5d, 0x5d, 0x5d, 0x5d, 0x5d, 0x5d, 0x5d, 0xa3,
  0xa3, 0x5d, 0x5d, 0xa3, 0xa3, 0xa3, 0xa3, 0x5d, 0xa3, 0x5d, 0xa3, 0x5d,
  0xa3, 0xa3, 0xa3, 0x5d, 0x5d, 0x5d, 0xa3, 0xa3, 0xa3, 0x5d, 0xa3, 0x5d,
  0x5d, 0x5d, 0xa3, 0x5d, 0x5d, 0x5d, 0xa3, 0x5d, 0xa3, 0x5d, 0xa3, 0x5d,
  0xa3, 0xa3, 0x5d, 0xa3, 0x5d, 0x5d, 0x5d, 0x5d, 0x5d, 0x5d, 0x5d, 0x5d,
  0x5d, 0x5d, 0x5d, 0x5d, 0x5d, 0x5d, 0xa3, 0x5d, 0xa4, 0x5c, 0x5c, 0x5c,
  0x5c, 0x5c, 0xa4, 0x5c, 0x5c, 0xa4, 0x5c, 0xa4, 0x5c, 0x5c, 0x5c, 0x5c,
  0x5c, 0xa4, 0xa4, 0x5c, 0xa4, 0x5c, 0xa4, 0x5c, 0xa4, 0x5c, 0xa4, 0x5c,
  0xa4, 0xa4, 0xa4, 0x5c, 0x5c, 0xa4, 0xa4, 0x5c, 0xa4, 0xa4, 0x5c, 0x5c,
  0xa4, 0xa4, 0x5c, 0x5c, 0x5c, 0x5c, 0xa4, 0xa4, 0x5c, 0xa4, 0xa4, 0x5c,
  0x5c, 0xa4, 0x5c, 0xa4, 0xa4, 0x5c, 0x5c, 0xa4, 0x5c, 0x5c, 0xa4, 0x5c,
  0xa4, 0x5c, 0xa4, 0xa4, 0x5c, 0xa4, 0xa4, 0xa4, 0x5c, 0xa4, 0x5c, 0xa4,
  0x5c, 0xa4, 0x5c, 0xa4, 0x5c, 0xa4, 0xa4, 0x5c, 0x5c, 0xa4, 0x5c, 0x5c,
  0x5c, 0x5c, 0x5c, 0xa4, 0x5c, 0xa4, 0xa4, 0x5c, 0xa4, 0x5c, 0x5c, 0x5c,
  0x5c, 0xa4, 0xa4, 0xa4, 0x5c, 0x5c, 0x5c, 0xa4, 0x5c, 0xa4, 0x5c, 0xa4,
  0x5c, 0x5c, 0xa4, 0x5c, 0x5c, 0xa4, 0xa4, 0x5c, 0x5c, 0x5c, 0x5c, 0x5c,
  0xa4, 0xa4, 0x5c, 0x5c, 0x5c, 0x5c, 0x5c, 0x5c, 0x5c, 0x5c, 0xa4, 0xa4,
  0x5c, 0x5c, 0xa4, 0x5c, 0xa4, 0xa4, 0xa4, 0xa4, 0x5c, 0x5c, 0x5c, 0x5c,
  0x5c, 0xa4, 0xa4, 0x5c, 0xa4, 0x5c, 0x5c, 0xa4, 0xa4, 0x5c, 0x5c, 0x5c,
  0xa4, 0xa4, 0x5c, 0xa4, 0x5c, 0x5c, 0xa4, 0xa4, 0x5c, 0xa4, 0x5c, 0xa4,
  0x5c, 0xa4, 0x5c, 0x5c, 0x5c, 0x5c, 0xa4, 0x5c, 0x5c, 0xa4, 0xa4, 0x5c,
  0x5c, 0x5c, 0x5c, 0xa4, 0x5c, 0xa4, 0xa4, 0x5c, 0xa4, 0xa4, 0x5c, 0xa4,
  0x5c, 0xa4, 0xa4, 0xa4, 0x5c, 0x5c, 0x5c, 0x5c, 0xa4, 0xa4, 0xa4, 0xa4,
  0x5c, 0x5c, 0xa4, 0x5c, 0x5c, 0xa4, 0xa4, 0x5c, 0x5c, 0x5c, 0x5c, 0x5c,
  0x5c, 0xa4, 0xa4, 0xa4, 0x5c, 0x5c, 0x5c, 0x5c, 0x5c, 0x5c, 0x5c, 0xa4,
  0xa4, 0x5c, 0x5c, 0xa4, 0x5c, 0xa4, 0xa4, 0x5c, 0xa4, 0x5c, 0x5c, 0x5c,
  0x5c, 0xa4, 0x5c, 0x5c, 0xa4, 0x5c, 0x5c, 0xa4, 0x5c, 0xa4, 0x5c, 0x5c,
  0xa4, 0x5c, 0x5c, 0xa4, 0x5c, 0x5c, 0xa4, 0x5c, 0x5c, 0xa4, 0x5c, 0xa4,
  0xa4, 0xa4, 0x5c, 0x5c, 0x5c, 0x5c, 0xa4, 0x5c, 0x5c, 0xa4, 0xa4, 0x5c,
  0x5c, 0x5c, 0x5c, 0x5c, 0x5c, 0xa4, 0xa4, 0x5c, 0xa8, 0xa8, 0xa8, 0xa8,
  0x58, 0xa8, 0x58, 0xa8, 0xa8, 0xa8, 0xa8, 0xa8, 0xa8, 0xa8, 0x58, 0xa8,
  0xa8, 0x58, 0xa8, 0xa8, 0xa8, 0xa8, 0xa8, 0xa8, 0xa8, 0xa8, 0xa8, 0x58,
  0xa8, 0xa8, 0x58, 0xa8, 0x58, 0xa8, 0xa8, 0xa8, 0x58, 0xa8, 0xa8, 0x58,
  0x58, 0x58, 0x58, 0x58, 0x58, 0xa8, 0xa8, 0xa8, 0xa8, 0xa8, 0xa8, 0xa8,
  0xa8, 0x58, 0x58, 0xa8, 0x58, 0x58, 0x58, 0x58, 0xa8, 0x58, 0xa8, 0x58,
  0x58, 0xa8, 0x58, 0xa8, 0x58, 0x58, 0x58, 0x58, 0x58, 0x58, 0xa8, 0x58,
  0x58, 0x58, 0x58, 0xa8, 0xa8, 0xa8, 0x58, 0xa8, 0x58, 0x58, 0x58, 0x58,
  0x58, 0x58, 0x58, 0x58, 0xa8, 0x58, 0x58, 0x58, 0xa8, 0x58, 0xa8, 0xa8,
  0xa8, 0xa8, 0x58, 0x58, 0xa8, 0x58, 0xa8, 0x58, 0x58, 0x58, 0x58, 0xa8,
  0x58, 0x58, 0xa8, 0x58, 0xa8, 0xa8, 0x58, 0x58, 0xa8, 0xa8, 0xa8, 0x58,
  0x58, 0xa8, 0x58, 0xa8, 0x58, 0xa8, 0x58, 0x58, 0x58, 0x58, 0x58, 0x58,
  0x58, 0x58, 0x58, 0x58, 0x58, 0x58, 0x58, 0xa8, 0xa8, 0xa8, 0x58, 0xa8,
  0x58, 0xa8, 0x58, 0xa8, 0x58, 0x58, 0x58, 0x58, 0x58, 0x58, 0x58, 0x58,
  0x58, 0x58, 0x58, 0x58, 0x58, 0x58, 0x58, 0x58, 0xa8, 0x58, 0x58, 0x58,
  0xa8, 0x58, 0x58, 0x58, 0xa8, 0x58, 0x58, 0x58, 0x58, 0x58, 0xa8, 0x58,
  0x58, 0x58, 0x58, 0xa8, 0xa8, 0x58, 0x58, 0x58, 0x58, 0xa8, 0xa8, 0xa8,
  0x58, 0xa8, 0x58, 0x58, 0x58, 0x58, 0xa8, 0x58, 0x58, 0xa8, 0x58, 0x58,
  0x58, 0xa8, 0xa8, 0xa8, 0xa8, 0xa8, 0x58, 0xa8, 0xa8, 0xa8, 0x58, 0xa8,
  0x58, 0x58, 0x58, 0xa8, 0xa8, 0x58, 0x58, 0x58, 0xa8, 0x58, 0x58, 0x58,
  0xa8, 0x58, 0x58, 0x58, 0x58, 0xa8, 0xa8, 0x58, 0xa8, 0x58, 0x58, 0xa8,
  0xa8, 0xa8, 0x58, 0xa8, 0x58, 0x58, 0xa8, 0x58, 0x58, 0xa8, 0x58, 0x58,
  0x58, 0x58, 0x58, 0x58, 0xa8, 0x58, 0x58, 0xa8, 0x58, 0x58, 0x58, 0x58,
  0xa8, 0xa8, 0xa8, 0x58, 0x58, 0x58, 0xa8, 0x58, 0xa8, 0xa8, 0xa8, 0xa8,
  0x58, 0x58, 0x58, 0xa8, 0x58, 0xa8, 0xa8, 0xa8, 0xab, 0x55, 0xab, 0xab,
  0x55, 0xab, 0xab, 0xab, 0xab, 0xab, 0xab, 0xab, 0x55, 0x55, 0x55, 0xab,
  0x55, 0xab, 0x55, 0xab, 0x55, 0xab, 0xab, 0x55, 0xab, 0xab, 0x55, 0xab,
  0x55, 0xab, 0xab, 0xab, 0xab, 0xab, 0xab, 0x55, 0x55, 0xab, 0xab, 0xab,
  0xab, 0xab, 0x55, 0xab, 0x55, 0xab, 0x55, 0xab, 0xab, 0x55, 0xab, 0xab,
  0x55, 0xab, 0xab, 0x55, 0x55, 0x55, 0x55, 0x55, 0x55, 0x55, 0x55, 0x55,
  0xab, 0xab, 0xab, 0xab, 0x55, 0xab, 0xab, 0xab, 0x55, 0x55, 0x55, 0x55,
  0xab, 0x55, 0x55, 0x55, 0x55, 0xab, 0x55, 0x55, 0x55, 0xab, 0xab, 0x55,
  0x55, 0xab, 0x55, 0x55, 0x55, 0x55, 0x55, 0x55, 0xab, 0xab, 0xab, 0xab,
  0xab, 0x55, 0xab, 0x55, 0xab, 0xab, 0xab, 0xab, 0xab, 0x55, 0xab, 0xab,
  0xab, 0x55, 0x55, 0xab, 0xab, 0xab, 0xab, 0xab, 0xab, 0xab, 0xab, 0xab,
  0xab, 0x55, 0xab, 0xab, 0xab, 0xab, 0xab, 0xab, 0xab, 0xab, 0xab, 0xab,
  0x55, 0xab, 0x55, 0x55, 0x55, 0x55, 0xab, 0xab, 0x55, 0xab, 0xab, 0xab,
  0xab, 0x55, 0xab, 0xab, 0x55, 0x55, 0x55, 0xab, 0x55, 0x55, 0xab, 0xab,
  0xab, 0xab, 0xab, 0xab, 0x55, 0xab, 0xab, 0xab, 0x55, 0x55, 0x55, 0x55,
  0xab, 0xab, 0x55, 0xab, 0x55, 0xab, 0x55, 0xab, 0xab, 0xab, 0x55, 0x55,
  0x55, 0x55, 0x55, 0x55, 0x55, 0x55, 0xab, 0x55, 0x55, 0xab, 0xab, 0xab,
  0xab, 0xab, 0xab, 0x55, 0x55, 0x55, 0xab, 0x55, 0x55, 0x55, 0xab, 0xab,
  0x55, 0xab, 0x55, 0xab, 0x55, 0xab, 0x55, 0xab, 0x55, 0xab, 0xab, 0xab,
  0x55, 0x55, 0x55, 0xab, 0x55, 0xab, 0xab, 0xab, 0xab, 0xab, 0x55, 0xab,
  0xab, 0xab, 0xab, 0x55, 0x55, 0xab, 0xab, 0xab, 0x55, 0xab, 0xab, 0xab,
  0xab, 0xab, 0x55, 0xab, 0x55, 0xab, 0xab, 0xab, 0x55, 0x55, 0x55, 0xab,
  0xab, 0xab, 0xab, 0xab, 0x55, 0xab, 0xab, 0x55, 0x55, 0x55, 0x55, 0x55,
  0xab, 0xab, 0x55, 0xab, 0x55, 0xab, 0xab, 0x55, 0x55, 0xab, 0xab, 0xab,
  0x55, 0xab, 0x55, 0x55, 0x55, 0xab, 0x55, 0x55, 0xa5, 0xa5, 0xa5, 0x5b,
  0xa5, 0xa5, 0x5b, 0xa5, 0x5b, 0xa5, 0xa5, 0xa5, 0xa5, 0xa5, 0x5b, 0x5b,
  0x5b, 0x5b, 0xa5, 0x5b, 0xa5, 0x5b, 0x5b, 0xa5, 0x5b, 0xa5, 0xa5, 0xa5,
  0xa5, 0xa5, 0xa5, 0xa5, 0x5b, 0x5b, 0xa5, 0xa5, 0x5b, 0xa5, 0x5b, 0xa5,
  0xa5, 0xa5, 0x5b, 0x5b, 0xa5, 0xa5, 0xa5, 0xa5, 0x5b, 0x5b, 0xa5, 0xa5,
  0xa5, 0xa5, 0xa5, 0x5b, 0x5b, 0xa5, 0xa5, 0x5b, 0xa5, 0xa5, 0x5b, 0xa5,
  0x5b, 0x5b, 0xa5, 0xa5, 0x5b, 0xa5, 0x5b, 0x5b, 0x5b, 0x5b, 0xa5, 0x5b,
  0x5b, 0x5b, 0xa5, 0xa5, 0xa5, 0x5b, 0x5b, 0xa5, 0x5b, 0x5b, 0xa5, 0xa5,
  0xa5, 0xa5, 0x5b, 0x5b, 0xa5, 0x5b, 0x5b, 0x5b, 0x5b, 0x5b, 0x5b, 0x5b,
  0x5b, 0x5b, 0xa5, 0xa5, 0xa5, 0xa5, 0xa5, 0xa5, 0x5b, 0x5b, 0xa5, 0x5b,
  0xa5, 0x5b, 0x5b, 0x5b, 0xa5, 0x5b, 0xa5, 0xa5, 0x5b, 0xa5, 0xa5, 0x5b,
  0xa5, 0xa5, 0xa5, 0xa5, 0x5b, 0xa5, 0xa5, 0xa5, 0x5b, 0xa5, 0x5b, 0xa5,
  0xa5, 0x5b, 0xa5, 0xa5, 0xa5, 0xa5, 0xa5, 0x5b, 0xa5, 0x5b, 0xa5, 0xa5,
  0xa5, 0x5b, 0x5b, 0xa5, 0xa5, 0x5b, 0xa5, 0xa5, 0xa5, 0x5b, 0xa5, 0xa5,
  0x5b, 0x5b, 0x5b, 0xa5, 0x5b, 0xa5, 0x5b, 0x5b, 0x5b, 0x5b, 0xa5, 0xa5,
  0x5b, 0x5b, 0xa5, 0xa5, 0xa5, 0x5b, 0xa5, 0xa5, 0xa5, 0x5b, 0x5b, 0xa5,
  0xa5, 0xa5, 0xa5, 0x5b, 0x5b, 0x5b, 0x5b, 0xa5, 0xa5, 0x5b, 0x5b, 0xa5,
  0x5b, 0x5b, 0x5b, 0xa5, 0x5b, 0x5b, 0x5b, 0xa5, 0xa5, 0xa5, 0xa5, 0xa5,
  0x5b, 0x5b, 0xa5, 0x5b, 0x5b, 0xa5, 0xa5, 0x5b, 0x5b, 0x5b, 0xa5, 0x5b,
  0x5b, 0xa5, 0xa5, 0xa5, 0x5b, 0x5b, 0xa5, 0xa5, 0x5b, 0x5b, 0xa5, 0x5b,
  0xa5, 0x5b, 0xa5, 0xa5, 0xa5, 0xa5, 0xa5, 0xa5, 0x5b, 0x5b, 0xa5, 0xa5,
  0xa5, 0x5b, 0x5b, 0xa5, 0x5b, 0x5b, 0x5b, 0x5b, 0x5b, 0x5b, 0xa5, 0x5b,
  0x5b, 0xa5, 0x5b, 0xa5, 0x5b, 0xa5, 0x5b, 0x5b, 0x5b, 0x5b, 0xa5, 0x5b,
  0x5b, 0x5b, 0xa5, 0x5b, 0xa5, 0xa5, 0x5b, 0xa5, 0x5b, 0x5b, 0x5b, 0xa5,
  0xa5, 0xa5, 0x5b, 0x5b, 0xa5, 0x5b, 0x5b, 0xa5, 0x5d, 0xa3, 0xa3, 0x5d,
  0x5d, 0x5d, 0xa3, 0x5d, 0xa3, 0xa3, 0xa3, 0x5d, 0x5d, 0x5d, 0xa3, 0x5d,
  0x5d, 0xa3, 0xa3, 0xa3, 0xa3, 0x5d, 0xa3, 0x5d, 0xa3, 0xa3, 0xa3, 0x5d,
  0xa3, 0x5d, 0xa3, 0xa3, 0x5d, 0xa3, 0xa3, 0x5d, 0xa3, 0x5d, 0x5d, 0x5d,
  0xa3, 0x5d, 0xa3, 0x5d, 0x5d, 0x5d, 0xa3, 0xa3, 0x5d, 0x5d, 0xa3, 0xa3,
  0xa3, 0x5d, 0x5d, 0xa3, 0xa3, 0xa3, 0x5d, 0xa3, 0xa3, 0x5d, 0x5d, 0xa3,
  0x5d, 0xa3, 0x5d, 0x5d, 0x5d, 0x5d, 0x5d, 0x5d, 0x5d, 0x5d, 0xa3, 0x5d,
  0x5d, 0x5d, 0x5d, 0xa3, 0xa3, 0xa3, 0x5d, 0xa3, 0x5d, 0x5d, 0x5d, 0x5d,
  0x5d, 0xa3, 0x5d, 0x5d, 0x5d, 0x5d, 0x5d, 0x5d, 0x5d, 0xa3, 0xa3, 0xa3,
  0xa3, 0xa3, 0xa3, 0x5d, 0x5d, 0x5d, 0x5d, 0x5d, 0x5d, 0xa3, 0xa3, 0xa3,
  0x5d, 0xa3, 0xa3, 0xa3, 0xa3, 0xa3, 0x5d, 0xa3, 0x5d, 0xa3, 0x5d, 0xa3,
  0x5d, 0xa3, 0x5d, 0xa3, 0x5d, 0xa3, 0xa3, 0xa3, 0xa3, 0x5d, 0x5d, 0x5d,
  0x5d, 0x5d, 0x5d, 0x5d, 0x5d, 0x5d, 0xa3, 0xa3, 0xa3, 0xa3, 0x5d, 0xa3,
  0xa3, 0x5d, 0x5d, 0xa3, 0x5d, 0xa3, 0x5d, 0x5d, 0xa3, 0x5d, 0x5d, 0xa3,
  0x5d, 0x5d, 0x5d, 0xa3, 0xa3, 0x5d, 0x5d, 0x5d, 0x5d, 0x5d, 0x5d, 0x5d,
  0x5d, 0x5d, 0x5d, 0x5d, 0x5d, 0x5d, 0x5d, 0xa3, 0x5d, 0x5d, 0x5d, 0xa3,
  0x5d, 0xa3, 0x5d, 0x5d, 0xa3, 0x5d, 0x5d, 0x5d, 0x5d, 0x5d, 0x5d, 0x5d,
  0xa3, 0x5d, 0x5d, 0x5d, 0x5d, 0x5d, 0x5d, 0x5d, 0x5d, 0x5d, 0x5d, 0x5d,
  0xa3, 0x5d, 0xa3, 0xa3, 0xa3, 0x5d, 0xa3, 0x5d, 0xa3, 0x5d, 0xa3, 0x5d,
  0xa3, 0x5d, 0x5d, 0xa3, 0x5d, 0x5d, 0x5d, 0x5d, 0xa3, 0x5d, 0x5d, 0x5d,
  0xa3, 0x5d, 0x5d, 0x5d, 0x5d, 0x5d, 0x5d, 0x5d, 0xa3, 0x5d, 0xa3, 0x5d,
  0xa3, 0x5d, 0xa3, 0xa3, 0x5d, 0xa3, 0x5d, 0xa3, 0xa3, 0x5d, 0x5d, 0xa3,
  0x5d, 0x5d, 0x5d, 0x5d, 0xa3, 0x5d, 0x5d, 0xa3, 0x5d, 0x5d, 0xa3, 0x5d,
  0x5d, 0x5d, 0xa3, 0x5d, 0xa3, 0x5d, 0x5d, 0x5d, 0x5d, 0x5d, 0x5d, 0xa3,
  0x5d, 0x5d, 0xa3, 0xa3, 0xa3, 0x5d, 0x5d, 0xa3, 0x52, 0x52, 0x52, 0x52,
  0xae, 0x52, 0x52, 0x52, 0x52, 0xae, 0xae, 0x52, 0x52, 0x52, 0x52, 0x52,
  0xae, 0x52, 0x52, 0x52, 0x52, 0x52, 0xae, 0xae, 0x52, 0x52, 0xae, 0xae,
  0x52, 0x52, 0x52, 0xae, 0x52, 0x52, 0x52, 0x52, 0x52, 0x52, 0x52, 0x52,
  0x52, 0x52, 0x52, 0x52, 0xae, 0x52, 0x52, 0x52, 0x52, 0x52, 0x52, 0x52,
  0x52, 0x52, 0xae, 0x52, 0x52, 0x52, 0x52, 0x52, 0xae, 0xae, 0x52, 0x52,
  0x52, 0x52, 0x52, 0x52, 0x52, 0x52, 0x52, 0x52, 0x52, 0x52, 0x52, 0xae,
  0x52, 0x52, 0xae, 0x52, 0xae, 0x52, 0x52, 0x52, 0x52, 0x52, 0x52, 0x52,
  0x52, 0x52, 0x52, 0x52, 0xae, 0x52, 0x52, 0x52, 0x52, 0xae, 0x52, 0xae,
  0x52, 0xae, 0xae, 0xae, 0xae, 0xae, 0xae, 0xae, 0xae, 0xae, 0xae, 0x52,
  0xae, 0x52, 0xae, 0xae, 0xae, 0xae, 0xae, 0xae, 0x52, 0x52, 0x52, 0xae,
  0xae, 0xae, 0x52, 0xae, 0xae, 0xae, 0xae, 0xae, 0x52, 0xae, 0x52, 0xae,
  0xae, 0xae, 0x52, 0x52, 0xae, 0xae, 0xae, 0xae, 0x52, 0xae, 0xae, 0xae,
  0x52, 0xae, 0x52, 0x52, 0x52, 0xae, 0xae, 0xae, 0xae, 0xae, 0xae, 0x52,
  0x52, 0xae, 0x52, 0xae, 0x52, 0x52, 0x52, 0xae, 0xae, 0x52, 0x52, 0xae,
  0xae, 0x52, 0xae, 0x52, 0x52, 0x52, 0xae, 0xae, 0xae, 0x52, 0xae, 0x52,
  0x52, 0x52, 0x52, 0x52, 0x52, 0xae, 0xae, 0x52, 0xae, 0xae, 0xae, 0xae,
  0x52, 0x52, 0xae, 0xae, 0xae, 0x52, 0xae, 0xae, 0xae, 0x52, 0xae, 0xae,
  0xae, 0x52, 0x52, 0xae, 0xae, 0x52, 0x52, 0xae, 0xae, 0xae, 0x52, 0x52,
  0xae, 0x52, 0xae, 0xae, 0xae, 0xae, 0xae, 0x52, 0xae, 0xae, 0xae, 0xae,
  0x52, 0xae, 0xae, 0x52, 0xae, 0x52, 0x52, 0xae, 0x52, 0xae, 0xae, 0xae,
  0x52, 0x52, 0xae, 0x52, 0x52, 0x52, 0x52, 0x52, 0x52, 0x52, 0xae, 0x52,
  0xae, 0xae, 0x52, 0xae, 0x52, 0x52, 0xae, 0xae, 0xae, 0xae, 0x52, 0xae,
  0xae, 0xae, 0x52, 0xae, 0x52, 0xae, 0xae, 0xae, 0xae, 0xae, 0xae, 0x52,
  0x52, 0x52, 0x52, 0x52, 0x52, 0xae, 0xae, 0x52, 0x9a, 0x9a, 0x9a, 0x66,
  0x9a, 0x9a, 0x66, 0x9a, 0x9a, 0x9a, 0x9a, 0x9a, 0x66, 0x9a, 0x9a, 0x66,
  0x9a, 0x66, 0x66, 0x9a, 0x66, 0x9a, 0x9a, 0x66, 0x9a, 0x66, 0x9a, 0x9a,
  0x66, 0x66, 0x66, 0x9a, 0x9a, 0x9a, 0x9a, 0x66, 0x9a, 0x66, 0x9a, 0x9a,
  0x9a, 0x9a, 0x66, 0x9a, 0x66, 0x9a, 0x66, 0x66, 0x66, 0x9a, 0x9a, 0x9a,
  0x66, 0x9a, 0x9a, 0x66, 0x9a, 0x66, 0x66, 0x9a, 0x66, 0x9a, 0x9a, 0x9a,
  0x9a, 0x66, 0x9a, 0x9a, 0x66, 0x9a, 0x9a, 0x9a, 0x66, 0x9a, 0x66, 0x66,
  0x66, 0x9a, 0x66, 0x9a, 0x66, 0x9a, 0x66, 0x66, 0x66, 0x9a, 0x66, 0x66,
  0x66, 0x66, 0x66, 0x66, 0x66, 0x66, 0x9a, 0x66, 0x66, 0x9a, 0x66, 0x66,
  0x66, 0x9a, 0x66, 0x66, 0x9a, 0x9a, 0x9a, 0x9a, 0x66, 0x66, 0x9a, 0x66,
  0x66, 0x9a, 0x9a, 0x66, 0x66, 0x66, 0x66, 0x66, 0x9a, 0x66, 0x9a, 0x66,
  0x9a, 0x9a, 0x66, 0x66, 0x9a, 0x9a, 0x9a, 0x66, 0x9a, 0x66, 0x66, 0x9a,
  0x9a, 0x9a, 0x9a, 0x66, 0x9a, 0x9a, 0x66, 0x66, 0x9a, 0x66, 0x9a, 0x9a,
  0x9a, 0x9a, 0x9a, 0x9a, 0x9a, 0x9a, 0x9a, 0x9a, 0x66, 0x9a, 0x9a, 0x9a,
  0x9a, 0x66, 0x9a, 0x9a, 0x66, 0x9a, 0x66, 0x9a, 0x66, 0x66, 0x66, 0x66,
  0x9a, 0x9a, 0x66, 0x9a, 0x66, 0x66, 0x9a, 0x66, 0x66, 0x9a, 0x9a, 0x66,
  0x66, 0x66, 0x66, 0x9a, 0x66, 0x66, 0x9a, 0x66, 0x66, 0x66, 0x66, 0x66,
  0x66, 0x66, 0x9a, 0x66, 0x9a, 0x66, 0x9a, 0x9a, 0x9a, 0x66, 0x66, 0x9a,
  0x66, 0x9a, 0x66, 0x9a, 0x9a, 0x66, 0x66, 0x9a, 0x66, 0x9a, 0x9a, 0x66,
  0x66, 0x66, 0x66, 0x9a, 0x9a, 0x66, 0x66, 0x9a, 0x66, 0x9a, 0x9a, 0x9a,
  0x9a, 0x9a, 0x66, 0x66, 0x66, 0x66, 0x9a, 0x66, 0x66, 0x9a, 0x9a, 0x9a,
  0x66, 0x9a, 0x9a, 0x9a, 0x9a, 0x66, 0x9a, 0x66, 0x66, 0x66, 0x66, 0x9a,
  0x9a, 0x9a, 0x9a, 0x9a, 0x66, 0x66, 0x66, 0x9a, 0x66, 0x66, 0x66, 0x66,
  0x66, 0x9a, 0x9a, 0x66, 0x66, 0x9a, 0x9a, 0x66, 0x66, 0x9a, 0x9a, 0x66,
  0x9a, 0x66, 0x66, 0x66, 0x9a, 0x9a, 0x9a, 0x66, 0x7f, 0x7f, 0x7f, 0x7f,
  0x81, 0x7f, 0x7f, 0x7f, 0x7f, 0x7f, 0x81, 0x81, 0x7f, 0x7f, 0x81, 0x81,
  0x7f, 0x81, 0x81, 0x81, 0x81, 0x7f, 0x7f, 0x81, 0x7f, 0x7f, 0x7f, 0x7f,
  0x81, 0x81, 0x7f, 0x7f, 0x7f, 0x81, 0x7f, 0x81, 0x7f, 0x7f, 0x7f, 0x7f,
  0x7f, 0x7f, 0x81, 0x81, 0x7f, 0x81, 0x7f, 0x7f, 0x81, 0x81, 0x7f, 0x81,
  0x81, 0x7f, 0x81, 0x81, 0x7f, 0x81, 0x81, 0x7f, 0x81, 0x7f, 0x7f, 0x7f,
  0x7f, 0x7f, 0x7f, 0x7f, 0x81, 0x7f, 0x7f, 0x7f, 0x81, 0x7f, 0x81, 0x7f,
  0x7f, 0x7f, 0x81, 0x7f, 0x81, 0x81, 0x7f, 0x81, 0x81, 0x7f, 0x81, 0x81,
  0x7f, 0x7f, 0x81, 0x7f, 0x81, 0x81, 0x7f, 0x7f, 0x7f, 0x7f, 0x7f, 0x81,
  0x81, 0x7f, 0x7f, 0x81, 0x81, 0x7f, 0x7f, 0x7f, 0x81, 0x7f, 0x7f, 0x7f,
  0x81, 0x81, 0x7f, 0x7f, 0x81, 0x81, 0x81, 0x7f, 0x81, 0x7f, 0x81, 0x7f,
  0x7f, 0x7f, 0x7f, 0x81, 0x7f, 0x7f, 0x7f, 0x7f, 0x7f, 0x7f, 0x7f, 0x81,
  0x81, 0x7f, 0x7f, 0x7f, 0x81, 0x81, 0x7f, 0x7f, 0x7f, 0x7f, 0x81, 0x81,
  0x81, 0x7f, 0x81, 0x7f, 0x7f, 0x7f, 0x7f, 0x7f, 0x81, 0x7f, 0x7f, 0x7f,
  0x7f, 0x7f, 0x7f, 0x7f, 0x81, 0x7f, 0x7f, 0x81, 0x81, 0x81, 0x81, 0x7f,
  0x81, 0x81, 0x7f, 0x7f, 0x81, 0x7f, 0x81, 0x7f, 0x81, 0x81, 0x81, 0x7f,
  0x81, 0x7f, 0x81, 0x81, 0x81, 0x81, 0x7f, 0x81, 0x81, 0x7f, 0x81, 0x7f,
  0x81, 0x7f, 0x7f, 0x81, 0x81, 0x81, 0x7f, 0x7f, 0x81, 0x81, 0x81, 0x7f,
  0x81, 0x7f, 0x7f, 0x7f, 0x7f, 0x7f, 0x81, 0x7f, 0x7f, 0x7f, 0x81, 0x81,
  0x81, 0x81, 0x81, 0x7f, 0x81, 0x7f, 0x7f, 0x7f, 0x81, 0x7f, 0x7f, 0x81,
  0x81, 0x81, 0x81, 0x81, 0x81, 0x81, 0x81, 0x7f, 0x81, 0x7f, 0x81, 0x7f,
  0x81, 0x81, 0x81, 0x81, 0x81, 0x7f, 0x81, 0x81, 0x81, 0x81, 0x81, 0x81,
  0x81, 0x7f, 0x7f, 0x7f, 0x81, 0x7f, 0x81, 0x81, 0x81, 0x81, 0x81, 0x81,
  0x81, 0x81, 0x81, 0x7f, 0x81, 0x7f, 0x81, 0x7f, 0x81, 0x81, 0x81, 0x81,
  0x81, 0x7f, 0x81, 0x81, 0x81, 0x81, 0x81, 0x81, 0x49, 0x49, 0x49, 0x49,
  0xb7, 0xb7, 0xb7, 0x49, 0xb7, 0x49, 0xb7, 0x49, 0x49, 0xb7, 0x49, 0xb7,
  0xb7, 0x49, 0xb7, 0xb7, 0xb7, 0xb7, 0xb7, 0x49, 0xb7, 0x49, 0xb7, 0xb7,
  0x49, 0xb7, 0x49, 0x49, 0x49, 0x49, 0x49, 0xb7, 0x49, 0xb7, 0x49, 0x49,
  0x49, 0x49, 0x49, 0x49, 0x49, 0xb7, 0x49, 0x49, 0x49, 0xb7, 0xb7, 0x49,
  0x49, 0xb7, 0xb7, 0x49, 0x49, 0x49, 0x49, 0xb7, 0x49, 0xb7, 0x49, 0x49,
  0x49, 0x49, 0x49, 0x49, 0x49, 0xb7, 0xb7, 0x49, 0x49, 0x49, 0x49, 0x49,
  0x49, 0x49, 0x49, 0xb7, 0xb7, 0x49, 0x49, 0xb7, 0x49, 0xb7, 0x49, 0x49,
  0x49, 0xb7, 0x49, 0x49, 0x49, 0x49, 0x49, 0x49, 0x49, 0x49, 0x49, 0x49,
  0x49, 0x49, 0x49, 0x49, 0xb7, 0x49, 0x49, 0xb7, 0xb7, 0xb7, 0x49, 0x49,
  0x49, 0x49, 0xb7, 0x49, 0x49, 0x49, 0xb7, 0x49, 0x49, 0x49, 0xb7, 0xb7,
  0xb7, 0x49, 0xb7, 0xb7, 0x49, 0x49, 0x49, 0x49, 0xb7, 0x49, 0xb7, 0x49,
  0xb7, 0x49, 0x49, 0xb7, 0xb7, 0x49, 0xb7, 0xb7, 0x49, 0x49, 0x49, 0x49,
  0xb7, 0xb7, 0xb7, 0xb7, 0xb7, 0x49, 0xb7, 0xb7, 0x49, 0x49, 0x49, 0x49,
  0x49, 0xb7, 0x49, 0x49, 0x49, 0xb7, 0x49, 0xb7, 0xb7, 0x49, 0x49, 0x49,
  0xb7, 0x49, 0xb7, 0x49, 0x49, 0xb7, 0xb7, 0xb7, 0x49, 0x49, 0xb7, 0xb7,
  0x49, 0xb7, 0x49, 0xb7, 0x49, 0x49, 0x49, 0x49, 0xb7, 0x49, 0x49, 0x49,
  0x49, 0x49, 0xb7, 0xb7, 0xb7, 0xb7, 0x49, 0xb7, 0xb7, 0xb7, 0x49, 0x49,
  0x49, 0x49, 0x49, 0xb7, 0xb7, 0xb7, 0xb7, 0xb7, 0xb7, 0x49, 0xb7, 0xb7,
  0x49, 0xb7, 0xb7, 0xb7, 0x49, 0x49, 0x49, 0xb7, 0x49, 0xb7, 0xb7, 0x49,
  0xb7, 0x49, 0x49, 0xb7, 0x49, 0x49, 0xb7, 0x49, 0x49, 0x49, 0x49, 0xb7,
  0x49, 0x49, 0xb7, 0xb7, 0xb7, 0x49, 0x49, 0x49, 0xb7, 0xb7, 0x49, 0xb7,
  0x49, 0x49, 0x49, 0x49, 0xb7, 0x49, 0x49, 0xb7, 0x49, 0xb7, 0x49, 0x49,
  0x49, 0x49, 0x49, 0x49, 0xb7, 0xb7, 0xb7, 0xb7, 0xb7, 0xb7, 0xb7, 0x49,
  0xb7, 0x49, 0x49, 0xb7, 0xb7, 0x49, 0x49, 0x49, 0xa5, 0xa5, 0xa5, 0xa5,
  0x5b, 0xa5, 0xa5, 0xa5, 0xa5, 0xa5, 0x5b, 0x5b, 0x5b, 0x5b, 0x5b, 0x5b,
  0xa5, 0xa5, 0xa5, 0xa5, 0x5b, 0x5b, 0x5b, 0x5b, 0xa5, 0x5b, 0x5b, 0xa5,
  0x5b, 0xa5, 0xa5, 0x5b, 0xa5, 0xa5, 0xa5, 0x5b, 0x5b, 0xa5, 0x5b, 0xa5,
  0xa5, 0xa5, 0x5b, 0x5b, 0xa5, 0xa5, 0x5b, 0x5b, 0x5b, 0xa5, 0xa5, 0x5b,
  0x5b, 0xa5, 0xa5, 0x5b, 0xa5, 0x5b, 0x5b, 0xa5, 0xa5, 0xa5, 0xa5, 0xa5,
  0xa5, 0x5b, 0xa5, 0xa5, 0x5b, 0xa5, 0xa5, 0xa5, 0x5b, 0xa5, 0xa5, 0xa5,
  0xa5, 0xa5, 0x5b, 0xa5, 0xa5, 0x5b, 0xa5, 0x5b, 0x5b, 0xa5, 0x5b, 0x5b,
  0xa5, 0x5b, 0xa5, 0xa5, 0x5b, 0xa5, 0xa5, 0x5b, 0x5b, 0xa5, 0xa5, 0x5b,
  0x5b, 0x5b, 0x5b, 0x5b, 0x5b, 0x5b, 0x5b, 0x5b, 0x5b, 0x5b, 0x5b, 0xa5,
  0x5b, 0xa5, 0x5b, 0x5b, 0x5b, 0xa5, 0x5b, 0xa5, 0xa5, 0x5b, 0x5b, 0x5b,
  0xa5, 0x5b, 0x5b, 0xa5, 0xa5, 0xa5, 0xa5, 0x5b, 0x5b, 0xa5, 0x5b, 0xa5,
  0x5b, 0xa5, 0xa5, 0x5b, 0x5b, 0xa5, 0xa5, 0xa5, 0x5b, 0xa5, 0xa5, 0x5b,
  0x5b, 0xa5, 0xa5, 0xa5, 0x5b, 0xa5, 0x5b, 0xa5, 0xa5, 0xa5, 0x5b, 0x5b,
  0xa5, 0xa5, 0x5b, 0x5b, 0x5b, 0xa5, 0xa5, 0x5b, 0xa5, 0x5b, 0xa5, 0xa5,
  0xa5, 0xa5, 0x5b, 0x5b, 0x5b, 0x5b, 0xa5, 0x5b, 0x5b, 0xa5, 0xa5, 0x5b,
  0xa5, 0xa5, 0xa5, 0xa5, 0xa5, 0xa5, 0xa5, 0x5b, 0xa5, 0x5b, 0x5b, 0xa5,
  0x5b, 0x5b, 0x5b, 0x5b, 0x5b, 0x5b, 0x5b, 0x5b, 0x5b, 0x5b, 0x5b, 0xa5,
  0x5b, 0xa5, 0x5b, 0xa5, 0x5b, 0x5b, 0x5b, 0xa5, 0xa5, 0xa5, 0x5b, 0xa5,
  0x5b, 0x5b, 0x5b, 0x5b, 0xa5, 0xa5, 0x5b, 0x5b, 0x5b, 0xa5, 0x5b, 0xa5,
  0x5b, 0xa5, 0x5b, 0x5b, 0xa5, 0xa5, 0x5b, 0xa5, 0x5b, 0xa5, 0xa5, 0x5b,
  0x5b, 0xa5, 0xa5, 0x5b, 0x5b, 0x5b, 0x5b, 0x5b, 0x5b, 0xa5, 0x5b, 0x5b,
  0xa5, 0xa5, 0x5b, 0xa5, 0x5b, 0x5b, 0xa5, 0xa5, 0x5b, 0xa5, 0x5b, 0xa5,
  0xa5, 0xa5, 0x5b, 0x5b, 0x5b, 0xa5, 0xa5, 0x5b, 0x5b, 0xa5, 0xa5, 0x5b,
  0x5b, 0x5b, 0xa5, 0x5b, 0x5b, 0xa5, 0xa5, 0x5b, 0x58, 0xa8, 0x58, 0xa8,
  0xa8, 0x58, 0xa8, 0x58, 0x58, 0xa8, 0xa8, 0x58, 0x58, 0x58, 0xa8, 0xa8,
  0x58, 0xa8, 0x58, 0x58, 0xa8, 0xa8, 0x58, 0x58, 0x58, 0x58, 0xa8, 0xa8,
  0x58, 0xa8, 0x58, 0x58, 0xa8, 0x58, 0x58, 0xa8, 0x58, 0x58, 0xa8, 0x58,
  0xa8, 0x58, 0x58, 0xa8, 0x58, 0x58, 0x58, 0xa8, 0xa8, 0x58, 0x58, 0xa8,
  0xa8, 0x58, 0xa8, 0x58, 0x58, 0xa8, 0x58, 0x58, 0x58, 0x58, 0x58, 0x58,
  0x58, 0x58, 0x58, 0xa8, 0x58, 0xa8, 0xa8, 0x58, 0x58, 0x58, 0x58, 0x58,
  0x58, 0x58, 0x58, 0xa8, 0xa8, 0xa8, 0x58, 0xa8, 0x58, 0x58, 0x58, 0x58,
  0x58, 0x58, 0x58, 0x58, 0x58, 0x58, 0x58, 0x58, 0xa8, 0x58, 0xa8, 0xa8,
  0xa8, 0xa8, 0xa8, 0xa8, 0x58, 0xa8, 0xa8, 0xa8, 0x58, 0xa8, 0x58, 0xa8,
  0xa8, 0x58, 0xa8, 0xa8, 0x58, 0xa8, 0xa8, 0x58, 0x58, 0xa8, 0xa8, 0xa8,
  0xa8, 0xa8, 0xa8, 0xa8, 0x58, 0xa8, 0xa8, 0xa8, 0x58, 0xa8, 0xa8, 0xa8,
  0xa8, 0x58, 0x58, 0x58, 0xa8, 0xa8, 0x58, 0x58, 0x58, 0x58, 0xa8, 0xa8,
  0x58, 0x58, 0x58, 0x58, 0xa8, 0x58, 0x58, 0x58, 0x58, 0xa8, 0xa8, 0x58,
  0x58, 0xa8, 0x58, 0xa8, 0x58, 0x58, 0x58, 0x58, 0x58, 0x58, 0xa8, 0x58,
  0x58, 0x58, 0x58, 0x58, 0xa8, 0xa8, 0x58, 0xa8, 0x58, 0x58, 0x58, 0x58,
  0x58, 0x58, 0x58, 0x58, 0x58, 0x58, 0x58, 0x58, 0xa8, 0xa8, 0x58, 0xa8,
  0xa8, 0xa8, 0xa8, 0x58, 0x58, 0x58, 0x58, 0xa8, 0x58, 0xa8, 0x58, 0xa8,
  0xa8, 0xa8, 0xa8, 0xa8, 0xa8, 0x58, 0xa8, 0x58, 0x58, 0xa8, 0xa8, 0x58,
  0xa8, 0xa8, 0xa8, 0xa8, 0x58, 0xa8, 0x58, 0xa8, 0xa8, 0x58, 0x58, 0xa8,
  0x58, 0x58, 0x58, 0x58, 0xa8, 0x58, 0x58, 0x58, 0xa8, 0x58, 0xa8, 0x58,
  0x58, 0x58, 0x58, 0x58, 0x58, 0x58, 0x58, 0x58, 0x58, 0xa8, 0x58, 0xa8,
  0x58, 0x58, 0x58, 0x58, 0xa8, 0x58, 0x58, 0xa8, 0x58, 0x58, 0x58, 0x58,
  0xa8, 0xa8, 0x58, 0x58, 0xa8, 0x58, 0x58, 0x58, 0x58, 0x58, 0x58, 0xa8,
  0x58, 0x58, 0x58, 0x58, 0xa8, 0x58, 0x58, 0x58, 0x92, 0x92, 0x92, 0x92,
  0x92, 0x92, 0x92, 0x92, 0x92, 0x92, 0x6e, 0x92, 0x92, 0x92, 0x6e, 0x92,
  0x92, 0x6e, 0x92, 0x92, 0x6e, 0x92, 0x92, 0x92, 0x6e, 0x92, 0x92, 0x6e,
  0x6e, 0x92, 0x92, 0x92, 0x92, 0x92, 0x92, 0x6e, 0x92, 0x92, 0x92, 0x92,
  0x92, 0x92, 0x6e, 0x92, 0x92, 0x92, 0x6e, 0x92, 0x6e, 0x92, 0x92, 0x92,
  0x92, 0x92, 0x92, 0x6e, 0x92, 0x92, 0x6e, 0x6e, 0x6e, 0x6e, 0x92, 0x92,
  0x92, 0x92, 0x92, 0x92, 0x92, 0x92, 0x92, 0x92, 0x6e, 0x92, 0x6e, 0x92,
  0x6e, 0x92, 0x6e, 0x92, 0x6e, 0x92, 0x92, 0x92, 0x92, 0x92, 0x92, 0x6e,
  0x6e, 0x92, 0x6e, 0x6e, 0x6e, 0x92, 0x92, 0x92, 0x6e, 0x92, 0x92, 0x6e,
  0x92, 0x92, 0x6e, 0x6e, 0x6e, 0x6e, 0x6e, 0x6e, 0x6e, 0x6e, 0x6e, 0x92,
  0x92, 0x6e, 0x92, 0x6e, 0x92, 0x92, 0x6e, 0x6e, 0x6e, 0x92, 0x92, 0x92,
  0x6e, 0x6e, 0x6e, 0x92, 0x6e, 0x92, 0x92, 0x6e, 0x6e, 0x92, 0x6e, 0x6e,
  0x6e, 0x6e, 0x6e, 0x92, 0x6e, 0x6e, 0x6e, 0x92, 0x6e, 0x6e, 0x92, 0x92,
  0x92, 0x92, 0x6e, 0x92, 0x6e, 0x92, 0x92, 0x92, 0x92, 0x6e, 0x6e, 0x92,
  0x6e, 0x92, 0x6e, 0x6e, 0x92, 0x92, 0x6e, 0x92, 0x6e, 0x6e, 0x6e, 0x6e,
  0x6e, 0x6e, 0x6e, 0x92, 0x92, 0x6e, 0x6e, 0x92, 0x92, 0x92, 0x92, 0x92,
  0x92, 0x92, 0x6e, 0x92, 0x92, 0x6e, 0x6e, 0x6e, 0x6e, 0x6e, 0x6e, 0x6e,
  0x6e, 0x6e, 0x6e, 0x6e, 0x6e, 0x6e, 0x92, 0x6e, 0x6e, 0x6e, 0x6e, 0x92,
  0x6e, 0x92, 0x6e, 0x92, 0x92, 0x6e, 0x6e, 0x92, 0x6e, 0x92, 0x92, 0x92,
  0x6e, 0x6e, 0x6e, 0x6e, 0x6e, 0x92, 0x6e, 0x6e, 0x6e, 0x6e, 0x6e, 0x6e,
  0x6e, 0x6e, 0x92, 0x6e, 0x6e, 0x6e, 0x6e, 0x92, 0x6e, 0x6e, 0x6e, 0x92,
  0x92, 0x6e, 0x6e, 0x92, 0x6e, 0x92, 0x92, 0x92, 0x6e, 0x6e, 0x6e, 0x6e,
  0x6e, 0x6e, 0x6e, 0x6e, 0x92, 0x6e, 0x6e, 0x6e, 0x6e, 0x6e, 0x6e, 0x6e,
  0x6e, 0x6e, 0x6e, 0x6e, 0x92, 0x6e, 0x6e, 0x92, 0x92, 0x6e, 0x6e, 0x6e,
  0x6e, 0x92, 0x92, 0x6e, 0x6e, 0x6e, 0x6e, 0x6e, 0xab, 0x55, 0x55, 0xab,
  0xab, 0xab, 0x55, 0x55, 0xab, 0xab, 0x55, 0x55, 0xab, 0xab, 0xab, 0xab,
  0x55, 0xab, 0xab, 0x55, 0x55, 0xab, 0xab, 0xab, 0xab, 0xab, 0xab, 0xab,
  0xab, 0xab, 0xab, 0xab, 0xab, 0xab, 0xab, 0x55, 0xab, 0xab, 0x55, 0xab,
  0xab, 0x55, 0x55, 0xab, 0xab, 0xab, 0x55, 0xab, 0xab, 0x55, 0xab, 0xab,
  0xab, 0xab, 0xab, 0xab, 0x55, 0xab, 0xab, 0xab, 0xab, 0x55, 0xab, 0xab,
  0xab, 0xab, 0xab, 0xab, 0x55, 0xab, 0x55, 0x55, 0x55, 0x55, 0xab, 0x55,
  0x55, 0xab, 0xab, 0xab, 0xab, 0x55, 0x55, 0xab, 0x55, 0x55, 0xab, 0x55,
  0xab, 0xab, 0xab, 0x55, 0xab, 0x55, 0x55, 0xab, 0xab, 0x55, 0xab, 0x55,
  0xab, 0x55, 0xab, 0xab, 0xab, 0xab, 0x55, 0x55, 0x55, 0xab, 0x55, 0xab,
  0x55, 0x55, 0x55, 0x55, 0xab, 0xab, 0xab, 0xab, 0x55, 0x55, 0x55, 0xab,
  0x55, 0xab, 0xab, 0x55, 0x55, 0xab, 0xab, 0xab, 0x55, 0xab, 0xab, 0x55,
  0xab, 0xab, 0x55, 0xab, 0xab, 0xab, 0xab, 0xab, 0x55, 0x55, 0xab, 0xab,
  0xab, 0xab, 0xab, 0x55, 0x55, 0xab, 0xab, 0x55, 0xab, 0x55, 0xab, 0x55,
  0x55, 0xab, 0x55, 0xab, 0x55, 0x55, 0x55, 0x55, 0x55, 0x55, 0x55, 0x55,
  0x55, 0x55, 0xab, 0x55, 0xab, 0x55, 0x55, 0xab, 0xab, 0xab, 0x55, 0xab,
  0x55, 0x55, 0x55, 0x55, 0xab, 0x55, 0x55, 0x55, 0xab, 0x55, 0x55, 0xab,
  0x55, 0x55, 0xab, 0x55, 0xab, 0x55, 0x55, 0xab, 0xab, 0xab, 0x55, 0xab,
  0x55, 0x55, 0xab, 0x55, 0xab, 0xab, 0xab, 0x55, 0xab, 0x55, 0x55, 0x55,
  0x55, 0xab, 0xab, 0xab, 0x55, 0x55, 0x55, 0xab, 0x55, 0x55, 0xab, 0xab,
  0xab, 0x55, 0x55, 0xab, 0xab, 0xab, 0x55, 0xab, 0xab, 0xab, 0xab, 0xab,
  0x55, 0xab, 0xab, 0x55, 0x55, 0x55, 0xab, 0x55, 0xab, 0xab, 0xab, 0x55,
  0x55, 0x55, 0x55, 0x55, 0x55, 0x55, 0x55, 0x55, 0x55, 0x55, 0x55, 0x55,
  0x55, 0x55, 0x55, 0x55, 0xab, 0xab, 0x55, 0x55, 0x55, 0x55, 0x55, 0x55,
  0x55, 0x55, 0xab, 0x55, 0xab, 0x55, 0x55, 0x55, 0x00, 0x00, 0x00, 0x00,
  0xfa, 0xc5, 0xff, 0xff, 0x04, 0x00, 0x00, 0x00, 0x80, 0x00, 0x00, 0x00,
  0x00, 0x00, 0x00, 0x00, 0x00, 0x00, 0x00, 0x00, 0x00, 0x00, 0x00, 0x00,
  0x00, 0x00, 0x00, 0x00, 0x00, 0x00, 0x00, 0x00, 0x00, 0x00, 0x00, 0x00,
  0x00, 0x00, 0x00, 0x00, 0x00, 0x00, 0x00, 0x00, 0x00, 0x00, 0x00, 0x00,
  0x00, 0x00, 0x00, 0x00, 0x00, 0x00, 0x00, 0x00, 0x00, 0x00, 0x00, 0x00,
  0x00, 0x00, 0x00, 0x00, 0x00, 0x00, 0x00, 0x00, 0x00, 0x00, 0x00, 0x00,
  0x00, 0x00, 0x00, 0x00, 0x00, 0x00, 0x00, 0x00, 0x00, 0x00, 0x00, 0x00,
  0x00, 0x00, 0x00, 0x00, 0x00, 0x00, 0x00, 0x00, 0x00, 0x00, 0x00, 0x00,
  0x00, 0x00, 0x00, 0x00, 0x00, 0x00, 0x00, 0x00, 0x00, 0x00, 0x00, 0x00,
  0x00, 0x00, 0x00, 0x00, 0x00, 0x00, 0x00, 0x00, 0x00, 0x00, 0x00, 0x00,
  0x00, 0x00, 0x00, 0x00, 0x00, 0x00, 0x00, 0x00, 0x00, 0x00, 0x00, 0x00,
  0x00, 0x00, 0x00, 0x00, 0x00, 0x00, 0x00, 0x00, 0x00, 0x00, 0x00, 0x00,
  0x8a, 0xc6, 0xff, 0xff, 0x04, 0x00, 0x00, 0x00, 0x24, 0x00, 0x00, 0x00,
  0x4e, 0xcd, 0x6e, 0x3e, 0x07, 0x9c, 0x7f, 0x3e, 0xb8, 0xc7, 0xc0, 0x3c,
  0xfa, 0x9f, 0x05, 0xbe, 0x19, 0x99, 0x1d, 0xbe, 0x72, 0x23, 0x22, 0xbd,
  0x3a, 0x30, 0x14, 0x3e, 0x59, 0xdf, 0x49, 0x3e, 0xf7, 0x94, 0xcb, 0x3d,
  0xba, 0xc6, 0xff, 0xff, 0x04, 0x00, 0x00, 0x00, 0x00, 0x12, 0x00, 0x00,
  0x72, 0x8e, 0x72, 0x8e, 0x8e, 0x72, 0x72, 0x72, 0x72, 0x8e, 0x8e, 0x8e,
  0x8e, 0x8e, 0x8e, 0x72, 0x8e, 0x8e, 0x8e, 0x8e, 0x8e, 0x72, 0x72, 0x8e,
  0x8e, 0x72, 0x8e, 0x8e, 0x72, 0x8e, 0x72, 0x72, 0x8e, 0x8e, 0x8e, 0x72,
  0x72, 0x8e, 0x8e, 0x8e, 0x8e, 0x8e, 0x8e, 0x8e, 0x8e, 0x8e, 0x8e, 0x8e,
  0x8e, 0x72, 0x72, 0x72, 0x72, 0x72, 0x8e, 0x72, 0x72, 0x72, 0x8e, 0x72,
  0x8e, 0x8e, 0x8e, 0x8e, 0x8e, 0x8e, 0x72, 0x8e, 0x8e, 0x72, 0x8e, 0x8e,
  0x8e, 0x8e, 0x8e, 0x8e, 0x8e, 0x8e, 0x8e, 0x8e, 0x8e, 0x72, 0x72, 0x8e,
  0x8e, 0x8e, 0x8e, 0x8e, 0x72, 0x72, 0x8e, 0x8e, 0x72, 0x8e, 0x8e, 0x8e,
  0x72, 0x72, 0x72, 0x72, 0x8e, 0x72, 0x8e, 0x72, 0x72, 0x72, 0x8e, 0x8e,
  0x72, 0x72, 0x8e, 0x72, 0x8e, 0x8e, 0x72, 0x8e, 0x8e, 0x72, 0x8e, 0x8e,
  0x72, 0x8e, 0x8e, 0x8e, 0x8e, 0x72, 0x8e, 0x8e, 0x72, 0x72, 0x8e, 0x72,
  0x8e, 0x8e, 0x72, 0x72, 0x72, 0x72, 0x72, 0x8e, 0x8e, 0x8e, 0x72, 0x72,
  0x7b, 0x7b, 0x7b, 0x7b, 0x85, 0x85, 0x7b, 0x85, 0x85, 0x7b, 0x7b, 0x85,
  0x7b, 0x85, 0x7b, 0x7b, 0x85, 0x7b, 0x85, 0x7b, 0x85, 0x85, 0x85, 0x7b,
  0x85, 0x85, 0x85, 0x85, 0x7b, 0x7b, 0x7b, 0x85, 0x7b, 0x7b, 0x7b, 0x85,
  0x85, 0x7b, 0x85, 0x85, 0x7b, 0x7b, 0x85, 0x7b, 0x7b, 0x85, 0x85, 0x7b,
  0x85, 0x7b, 0x85, 0x7b, 0x85, 0x85, 0x7b, 0x7b, 0x85, 0x85, 0x85, 0x85,
  0x85, 0x85, 0x7b, 0x7b, 0x7b, 0x85, 0x85, 0x85, 0x7b, 0x7b, 0x85, 0x85,
  0x85, 0x7b, 0x85, 0x7b, 0x85, 0x85, 0x7b, 0x7b, 0x85, 0x7b, 0x85, 0x7b,
  0x7b, 0x7b, 0x85, 0x85, 0x85, 0x7b, 0x7b, 0x7b, 0x7b, 0x85, 0x85, 0x85,
  0x7b, 0x7b, 0x7b, 0x85, 0x7b, 0x85, 0x7b, 0x7b, 0x7b, 0x85, 0x85, 0x85,
  0x7b, 0x85, 0x7b, 0x7b, 0x7b, 0x7b, 0x7b, 0x85, 0x7b, 0x7b, 0x7b, 0x7b,
  0x7b, 0x7b, 0x85, 0x85, 0x7b, 0x7b, 0x7b, 0x7b, 0x85, 0x85, 0x85, 0x7b,
  0x7b, 0x85, 0x85, 0x85, 0x85, 0x7b, 0x7b, 0x7b, 0x7b, 0x85, 0x85, 0x7b,
  0x76, 0x8a, 0x8a, 0x8a, 0x8a, 0x8a, 0x76, 0x76, 0x8a, 0x8a, 0x8a, 0x8a,
  0x8a, 0x8a, 0x8a, 0x76, 0x8a, 0x8a, 0x76, 0x8a, 0x8a, 0x8a, 0x76, 0x76,
  0x8a, 0x8a, 0x8a, 0x8a, 0x8a, 0x8a, 0x8a, 0x8a, 0x8a, 0x76, 0x8a, 0x8a,
  0x8a, 0x8a, 0x8a, 0x8a, 0x76, 0x76, 0x8a, 0x76, 0x8a, 0x76, 0x8a, 0x76,
  0x8a, 0x76, 0x8a, 0x76, 0x76, 0x8a, 0x8a, 0x76, 0x76, 0x8a, 0x8a, 0x8a,
  0x8a, 0x8a, 0x8a, 0x8a, 0x76, 0x8a, 0x8a, 0x8a, 0x8a, 0x76, 0x8a, 0x8a,
  0x8a, 0x8a, 0x8a, 0x76, 0x8a, 0x76, 0x76, 0x8a, 0x8a, 0x76, 0x8a, 0x76,
  0x76, 0x76, 0x76, 0x8a, 0x8a, 0x76, 0x76, 0x76, 0x76, 0x8a, 0x76, 0x76,
  0x76, 0x76, 0x76, 0x8a, 0x76, 0x76, 0x8a, 0x76, 0x8a, 0x76, 0x76, 0x8a,
  0x76, 0x76, 0x76, 0x76, 0x76, 0x76, 0x76, 0x76, 0x76, 0x76, 0x8a, 0x76,
  0x76, 0x76, 0x8a, 0x76, 0x8a, 0x76, 0x76, 0x76, 0x76, 0x76, 0x76, 0x76,
  0x76, 0x76, 0x76, 0x76, 0x76, 0x76, 0x76, 0x76, 0x76, 0x76, 0x76, 0x76,
  0x81, 0x7f, 0x81, 0x7f, 0x81, 0x81, 0x81, 0x81, 0x81, 0x7f, 0x81, 0x81,
  0x81, 0x81, 0x81, 0x81, 0x7f, 0x7f, 0x7f, 0x81, 0x81, 0x81, 0x81, 0x81,
  0x7f, 0x81, 0x81, 0x81, 0x81, 0x7f, 0x7f, 0x7f, 0x7f, 0x7f, 0x7f, 0x81,
  0x7f, 0x7f, 0x81, 0x7f, 0x7f, 0x7f, 0x81, 0x81, 0x7f, 0x7f, 0x81, 0x7f,
  0x7f, 0x7f, 0x7f, 0x7f, 0x81, 0x81, 0x81, 0x81, 0x7f, 0x81, 0x81, 0x81,
  0x81, 0x81, 0x81, 0x81, 0x7f, 0x81, 0x7f, 0x81, 0x81, 0x7f, 0x81, 0x81,
  0x81, 0x81, 0x81, 0x7f, 0x81, 0x7f, 0x7f, 0x81, 0x81, 0x81, 0x7f, 0x7f,
  0x7f, 0x81, 0x81, 0x7f, 0x7f, 0x7f, 0x7f, 0x7f, 0x7f, 0x81, 0x7f, 0x7f,
  0x7f, 0x7f, 0x7f, 0x7f, 0x7f, 0x81, 0x7f, 0x81, 0x7f, 0x81, 0x81, 0x81,
  0x7f, 0x7f, 0x7f, 0x7f, 0x7f, 0x7f, 0x7f, 0x7f, 0x7f, 0x7f, 0x81, 0x7f,
  0x7f, 0x7f, 0x81, 0x7f, 0x7f, 0x7f, 0x7f, 0x7f, 0x81, 0x81, 0x7f, 0x7f,
  0x7f, 0x7f, 0x81, 0x7f, 0x81, 0x7f, 0x81, 0x7f, 0x7f, 0x81, 0x81, 0x7f,
  0x8f, 0x8f, 0x71, 0x71, 0x71, 0x71, 0x71, 0x71, 0x71, 0x71, 0x71, 0x71,
  0x71, 0x71, 0x71, 0x71, 0x71, 0x71, 0x71, 0x71, 0x71, 0x8f, 0x71, 0x71,
  0x71, 0x71, 0x71, 0x8f, 0x71, 0x8f, 0x8f, 0x71, 0x8f, 0x8f, 0x8f, 0x8f,
  0x8f, 0x8f, 0x8f, 0x8f, 0x8f, 0x8f, 0x8f, 0x8f, 0x8f, 0x71, 0x8f, 0x8f,
  0x8f, 0x71, 0x71, 0x71, 0x71, 0x71, 0x8f, 0x8f, 0x8f, 0x8f, 0x71, 0x71,
  0x71, 0x71, 0x71, 0x8f, 0x71, 0x8f, 0x8f, 0x71, 0x71, 0x8f, 0x71, 0x8f,
  0x8f, 0x71, 0x71, 0x8f, 0x71, 0x8f, 0x8f, 0x71, 0x8f, 0x8f, 0x8f, 0x71,
  0x8f, 0x71, 0x8f, 0x8f, 0x8f, 0x8f, 0x71, 0x8f, 0x8f, 0x8f, 0x8f, 0x8f,
  0x71, 0x71, 0x71, 0x71, 0x71, 0x8f, 0x71, 0x71, 0x71, 0x71, 0x71, 0x8f,
  0x71, 0x8f, 0x71, 0x71, 0x8f, 0x8f, 0x8f, 0x8f, 0x8f, 0x71, 0x71, 0x8f,
  0x8f, 0x8f, 0x71, 0x8f, 0x8f, 0x71, 0x8f, 0x8f, 0x8f, 0x71, 0x8f, 0x71,
  0x71, 0x71, 0x71, 0x71, 0x8f, 0x71, 0x71, 0x8f, 0x8f, 0x8f, 0x71, 0x8f,
  0x6d, 0x93, 0x6d, 0x6d, 0x6d, 0x93, 0x6d, 0x93, 0x93, 0x6d, 0x93, 0x93,
  0x6d, 0x93, 0x93, 0x93, 0x93, 0x93, 0x93, 0x93, 0x93, 0x93, 0x93, 0x6d,
  0x93, 0x93, 0x93, 0x93, 0x6d, 0x93, 0x93, 0x93, 0x6d, 0x6d, 0x6d, 0x93,
  0x93, 0x93, 0x93, 0x93, 0x93, 0x6d, 0x6d, 0x6d, 0x6d, 0x6d, 0x6d, 0x6d,
  0x93, 0x93, 0x6d, 0x6d, 0x6d, 0x6d, 0x6d, 0x6d, 0x6d, 0x6d, 0x6d, 0x93,
  0x6d, 0x93, 0x93, 0x93, 0x93, 0x6d, 0x93, 0x93, 0x93, 0x6d, 0x93, 0x6d,
  0x6d, 0x6d, 0x93, 0x6d, 0x93, 0x6d, 0x6d, 0x93, 0x6d, 0x6d, 0x6d, 0x6d,
  0x6d, 0x6d, 0x6d, 0x93, 0x6d, 0x93, 0x6d, 0x6d, 0x6d, 0x6d, 0x6d, 0x6d,
  0x6d, 0x6d, 0x93, 0x93, 0x93, 0x6d, 0x6d, 0x93, 0x6d, 0x6d, 0x93, 0x6d,
  0x6d, 0x6d, 0x6d, 0x6d, 0x6d, 0x6d, 0x6d, 0x6d, 0x93, 0x6d, 0x93, 0x6d,
  0x6d, 0x6d, 0x6d, 0x6d, 0x6d, 0x6d, 0x6d, 0x6d, 0x6d, 0x6d, 0x6d, 0x6d,
  0x6d, 0x6d, 0x93, 0x6d, 0x6d, 0x6d, 0x93, 0x93, 0x6d, 0x93, 0x6d, 0x6d,
  0x90, 0x90, 0x70, 0x70, 0x70, 0x70, 0x90, 0x90, 0x90, 0x70, 0x90, 0x70,
  0x90, 0x70, 0x70, 0x90, 0x90, 0x90, 0x90, 0x90, 0x90, 0x70, 0x90, 0x90,
  0x90, 0x90, 0x90, 0x70, 0x70, 0x90, 0x90, 0x90, 0x90, 0x90, 0x70, 0x70,
  0x70, 0x90, 0x90, 0x70, 0x90, 0x90, 0x90, 0x90, 0x70, 0x70, 0x70, 0x70,
  0x90, 0x70, 0x70, 0x90, 0x90, 0x70, 0x90, 0x70, 0x90, 0x70, 0x90, 0x70,
  0x90, 0x70, 0x90, 0x90, 0x90, 0x70, 0x70, 0x90, 0x90, 0x70, 0x70, 0x90,
  0x70, 0x90, 0x90, 0x70, 0x90, 0x70, 0x90, 0x90, 0x90, 0x70, 0x70, 0x70,
  0x70, 0x90, 0x90, 0x90, 0x90, 0x70, 0x70, 0x90, 0x70, 0x90, 0x90, 0x90,
  0x90, 0x70, 0x70, 0x70, 0x70, 0x90, 0x90, 0x70, 0x70, 0x70, 0x90, 0x90,
  0x90, 0x70, 0x70, 0x90, 0x90, 0x70, 0x70, 0x70, 0x90, 0x90, 0x90, 0x70,
  0x70, 0x90, 0x90, 0x90, 0x90, 0x90, 0x90, 0x70, 0x70, 0x90, 0x70, 0x70,
  0x70, 0x90, 0x70, 0x90, 0x70, 0x90, 0x90, 0x90, 0x70, 0x90, 0x90, 0x90,
  0x64, 0x64, 0x64, 0x9c, 0x64, 0x9c, 0x64, 0x64, 0x64, 0x9c, 0x64, 0x64,
  0x9c, 0x64, 0x64, 0x9c, 0x9c, 0x64, 0x9c, 0x9c, 0x64, 0x64, 0x9c, 0x9c,
  0x64, 0x64, 0x9c, 0x9c, 0x9c, 0x9c, 0x9c, 0x9c, 0x9c, 0x9c, 0x9c, 0x9c,
  0x64, 0x9c, 0x64, 0x9c, 0x9c, 0x9c, 0x64, 0x9c, 0x9c, 0x9c, 0x9c, 0x9c,
  0x9c, 0x9c, 0x64, 0x64, 0x9c, 0x9c, 0x64, 0x64, 0x9c, 0x9c, 0x64, 0x9c,
  0x9c, 0x9c, 0x9c, 0x9c, 0x9c, 0x9c, 0x9c, 0x9c, 0x9c, 0x9c, 0x9c, 0x9c,
  0x9c, 0x9c, 0x9c, 0x9c, 0x9c, 0x9c, 0x9c, 0x64, 0x9c, 0x9c, 0x9c, 0x9c,
  0x9c, 0x9c, 0x9c, 0x9c, 0x9c, 0x64, 0x64, 0x9c, 0x9c, 0x9c, 0x9c, 0x9c,
  0x9c, 0x9c, 0x9c, 0x64, 0x9c, 0x9c, 0x9c, 0x64, 0x9c, 0x64, 0x64, 0x64,
  0x9c, 0x9c, 0x9c, 0x9c, 0x9c, 0x9c, 0x9c, 0x9c, 0x9c, 0x9c, 0x9c, 0x9c,
  0x9c, 0x9c, 0x9c, 0x9c, 0x9c, 0x9c, 0x64, 0x9c, 0x9c, 0x9c, 0x9c, 0x9c,
  0x9c, 0x9c, 0x64, 0x9c, 0x9c, 0x9c, 0x9c, 0x9c, 0x9c, 0x64, 0x9c, 0x9c,
  0x74, 0x8c, 0x8c, 0x74, 0x8c, 0x74, 0x74, 0x74, 0x74, 0x8c, 0x74, 0x74,
  0x8c, 0x74, 0x74, 0x8c, 0x74, 0x8c, 0x74, 0x74, 0x8c, 0x8c, 0x74, 0x74,
  0x74, 0x8c, 0x74, 0x74, 0x74, 0x8c, 0x74, 0x74, 0x8c, 0x74, 0x74, 0x74,
  0x8c, 0x8c, 0x8c, 0x74, 0x8c, 0x74, 0x8c, 0x8c, 0x74, 0x74, 0x8c, 0x8c,
  0x74, 0x74, 0x74, 0x74, 0x8c, 0x74, 0x8c, 0x8c, 0x74, 0x74, 0x74, 0x74,
  0x8c, 0x74, 0x8c, 0x8c, 0x74, 0x74, 0x74, 0x74, 0x8c, 0x8c, 0x74, 0x74,
  0x8c, 0x8c, 0x74, 0x74, 0x8c, 0x8c, 0x74, 0x74, 0x8c, 0x74, 0x74, 0x8c,
  0x8c, 0x8c, 0x8c, 0x74, 0x8c, 0x8c, 0x74, 0x8c, 0x74, 0x8c, 0x8c, 0x8c,
  0x8c, 0x74, 0x74, 0x74, 0x74, 0x74, 0x8c, 0x8c, 0x74, 0x74, 0x8c, 0x8c,
  0x8c, 0x8c, 0x74, 0x74, 0x74, 0x8c, 0x8c, 0x74, 0x8c, 0x74, 0x74, 0x8c,
  0x74, 0x8c, 0x74, 0x74, 0x8c, 0x74, 0x74, 0x74, 0x8c, 0x74, 0x74, 0x8c,
  0x8c, 0x8c, 0x8c, 0x74, 0x8c, 0x8c, 0x74, 0x8c, 0x74, 0x8c, 0x8c, 0x8c,
  0x94, 0x6c, 0x6c, 0x6c, 0x6c, 0x94, 0x6c, 0x94, 0x94, 0x6c, 0x6c, 0x6c,
  0x94, 0x6c, 0x94, 0x94, 0x94, 0x6c, 0x94, 0x94, 0x94, 0x6c, 0x6c, 0x6c,
  0x6c, 0x94, 0x6c, 0x94, 0x94, 0x94, 0x94, 0x6c, 0x94, 0x94, 0x94, 0x94,
  0x94, 0x94, 0x94, 0x94, 0x94, 0x94, 0x94, 0x94, 0x94, 0x94, 0x94, 0x94,
  0x94, 0x6c, 0x94, 0x6c, 0x6c, 0x94, 0x6c, 0x94, 0x6c, 0x6c, 0x6c, 0x6c,
  0x94, 0x6c, 0x6c, 0x6c, 0x94, 0x94, 0x94, 0x94, 0x94, 0x94, 0x94, 0x94,
  0x94, 0x94, 0x6c, 0x6c, 0x6c, 0x94, 0x6c, 0x94, 0x94, 0x94, 0x94, 0x94,
  0x6c, 0x94, 0x6c, 0x6c, 0x94, 0x94, 0x94, 0x94, 0x94, 0x94, 0x94, 0x94,
  0x94, 0x6c, 0x6c, 0x6c, 0x94, 0x6c, 0x94, 0x6c, 0x94, 0x6c, 0x6c, 0x6c,
  0x94, 0x94, 0x94, 0x94, 0x94, 0x94, 0x6c, 0x94, 0x94, 0x94, 0x6c, 0x94,
  0x94, 0x94, 0x94, 0x94, 0x6c, 0x6c, 0x94, 0x6c, 0x94, 0x6c, 0x6c, 0x94,
  0x94, 0x6c, 0x94, 0x94, 0x94, 0x94, 0x94, 0x94, 0x94, 0x6c, 0x94, 0x94,
  0x92, 0x6e, 0x6e, 0x92, 0x92, 0x92, 0x6e, 0x6e, 0x6e, 0x92, 0x92, 0x6e,
  0x92, 0x6e, 0x92, 0x92, 0x6e, 0x92, 0x92, 0x6e, 0x6e, 0x6e, 0x6e, 0x6e,
  0x6e, 0x92, 0x6e, 0x6e, 0x6e, 0x6e, 0x6e, 0x92, 0x6e, 0x6e, 0x6e, 0x6e,
  0x92, 0x92, 0x6e, 0x6e, 0x92, 0x92, 0x6e, 0x92, 0x6e, 0x92, 0x92, 0x6e,
  0x92, 0x6e, 0x6e, 0x92, 0x92, 0x6e, 0x92, 0x92, 0x92, 0x6e, 0x92, 0x92,
  0x6e, 0x6e, 0x92, 0x92, 0x6e, 0x92, 0x92, 0x6e, 0x92, 0x6e, 0x6e, 0x92,
  0x92, 0x6e, 0x6e, 0x6e, 0x92, 0x92, 0x6e, 0x6e, 0x92, 0x6e, 0x6e, 0x6e,
  0x6e, 0x92, 0x6e, 0x6e, 0x6e, 0x92, 0x6e, 0x92, 0x92, 0x92, 0x6e, 0x92,
  0x6e, 0x6e, 0x6e, 0x92, 0x6e, 0x6e, 0x6e, 0x92, 0x92, 0x6e, 0x6e, 0x92,
  0x92, 0x6e, 0x92, 0x6e, 0x92, 0x6e, 0x92, 0x6e, 0x6e, 0x92, 0x92, 0x6e,
  0x92, 0x6e, 0x92, 0x92, 0x92, 0x6e, 0x6e, 0x92, 0x92, 0x6e, 0x92, 0x92,
  0x6e, 0x92, 0x6e, 0x6e, 0x92, 0x92, 0x6e, 0x92, 0x6e, 0x92, 0x6e, 0x6e,
  0x74, 0x74, 0x74, 0x74, 0x8c, 0x74, 0x74, 0x74, 0x8c, 0x8c, 0x74, 0x8c,
  0x74, 0x8c, 0x74, 0x74, 0x74, 0x8c, 0x8c, 0x74, 0x8c, 0x74, 0x74, 0x8c,
  0x8c, 0x74, 0x74, 0x8c, 0x74, 0x8c, 0x8c, 0x74, 0x8c, 0x8c, 0x74, 0x8c,
  0x8c, 0x8c, 0x74, 0x8c, 0x8c, 0x8c, 0x8c, 0x8c, 0x74, 0x8c, 0x8c, 0x8c,
  0x74, 0x74, 0x8c, 0x74, 0x8c, 0x8c, 0x8c, 0x8c, 0x8c, 0x74, 0x8c, 0x74,
  0x74, 0x74, 0x74, 0x74, 0x74, 0x8c, 0x8c, 0x8c, 0x8c, 0x8c, 0x8c, 0x8c,
  0x8c, 0x8c, 0x8c, 0x8c, 0x8c, 0x8c, 0x8c, 0x8c, 0x8c, 0x74, 0x8c, 0x74,
  0x8c, 0x8c, 0x8c, 0x8c, 0x74, 0x8c, 0x74, 0x8c, 0x74, 0x8c, 0x8c, 0x8c,
  0x8c, 0x74, 0x74, 0x74, 0x8c, 0x74, 0x8c, 0x8c, 0x74, 0x74, 0x8c, 0x8c,
  0x8c, 0x74, 0x74, 0x8c, 0x8c, 0x8c, 0x8c, 0x8c, 0x8c, 0x74, 0x8c, 0x8c,
  0x8c, 0x8c, 0x8c, 0x8c, 0x8c, 0x8c, 0x8c, 0x8c, 0x8c, 0x8c, 0x8c, 0x74,
  0x8c, 0x8c, 0x8c, 0x8c, 0x74, 0x8c, 0x74, 0x8c, 0x74, 0x8c, 0x74, 0x8c,
  0x64, 0x64, 0x64, 0x9c, 0x9c, 0x64, 0x64, 0x64, 0x9c, 0x64, 0x64, 0x64,
  0x9c, 0x64, 0x9c, 0x64, 0x9c, 0x9c, 0x64, 0x64, 0x9c, 0x64, 0x64, 0x64,
  0x64, 0x64, 0x64, 0x9c, 0x64, 0x9c, 0x9c, 0x64, 0x9c, 0x9c, 0x64, 0x9c,
  0x64, 0x9c, 0x64, 0x9c, 0x64, 0x64, 0x9c, 0x9c, 0x9c, 0x9c, 0x9c, 0x64,
  0x9c, 0x64, 0x64, 0x64, 0x64, 0x64, 0x9c, 0x64, 0x64, 0x9c, 0x64, 0x9c,
  0x9c, 0x9c, 0x9c, 0x9c, 0x9c, 0x64, 0x64, 0x64, 0x9c, 0x64, 0x64, 0x9c,
  0x9c, 0x64, 0x64, 0x9c, 0x64, 0x9c, 0x9c, 0x9c, 0x9c, 0x9c, 0x9c, 0x9c,
  0x64, 0x9c, 0x64, 0x9c, 0x9c, 0x9c, 0x9c, 0x9c, 0x9c, 0x9c, 0x9c, 0x9c,
  0x9c, 0x64, 0x64, 0x64, 0x9c, 0x9c, 0x9c, 0x9c, 0x9c, 0x9c, 0x64, 0x9c,
  0x9c, 0x9c, 0x9c, 0x9c, 0x9c, 0x9c, 0x9c, 0x9c, 0x9c, 0x9c, 0x9c, 0x9c,
  0x64, 0x9c, 0x9c, 0x9c, 0x9c, 0x9c, 0x64, 0x9c, 0x9c, 0x9c, 0x9c, 0x9c,
  0x9c, 0x9c, 0x64, 0x64, 0x9c, 0x9c, 0x64, 0x9c, 0x9c, 0x9c, 0x64, 0x9c,
  0x9b, 0x65, 0x65, 0x9b, 0x9b, 0x9b, 0x9b, 0x9b, 0x65, 0x9b, 0x9b, 0x9b,
  0x65, 0x9b, 0x65, 0x9b, 0x9b, 0x65, 0x65, 0x9b, 0x9b, 0x9b, 0x9b, 0x9b,
  0x65, 0x65, 0x9b, 0x9b, 0x9b, 0x9b, 0x9b, 0x9b, 0x9b, 0x9b, 0x65, 0x9b,
  0x65, 0x9b, 0x65, 0x9b, 0x9b, 0x9b, 0x65, 0x9b, 0x65, 0x65, 0x9b, 0x9b,
  0x9b, 0x65, 0x9b, 0x9b, 0x9b, 0x9b, 0x9b, 0x9b, 0x65, 0x9b, 0x65, 0x65,
  0x65, 0x9b, 0x65, 0x9b, 0x65, 0x65, 0x9b, 0x9b, 0x9b, 0x9b, 0x65, 0x9b,
  0x65, 0x9b, 0x9b, 0x9b, 0x9b, 0x9b, 0x9b, 0x9b, 0x9b, 0x65, 0x65, 0x9b,
  0x65, 0x9b, 0x65, 0x9b, 0x9b, 0x65, 0x65, 0x9b, 0x9b, 0x9b, 0x9b, 0x9b,
  0x9b, 0x65, 0x65, 0x65, 0x9b, 0x9b, 0x9b, 0x9b, 0x9b, 0x9b, 0x65, 0x65,
  0x9b, 0x9b, 0x65, 0x9b, 0x9b, 0x9b, 0x9b, 0x9b, 0x9b, 0x65, 0x9b, 0x9b,
  0x9b, 0x9b, 0x9b, 0x9b, 0x9b, 0x9b, 0x9b, 0x9b, 0x9b, 0x65, 0x9b, 0x9b,
  0x9b, 0x65, 0x65, 0x9b, 0x65, 0x9b, 0x65, 0x65, 0x9b, 0x9b, 0x65, 0x65,
  0x93, 0x93, 0x93, 0x6d, 0x93, 0x6d, 0x93, 0x6d, 0x6d, 0x6d, 0x93, 0x6d,
  0x93, 0x6d, 0x6d, 0x93, 0x6d, 0x93, 0x93, 0x93, 0x93, 0x6d, 0x6d, 0x6d,
  0x93, 0x93, 0x6d, 0x6d, 0x93, 0x6d, 0x6d, 0x6d, 0x6d, 0x6d, 0x6d, 0x93,
  0x6d, 0x93, 0x6d, 0x6d, 0x93, 0x93, 0x6d, 0x93, 0x6d, 0x93, 0x93, 0x93,
  0x93, 0x6d, 0x6d, 0x93, 0x6d, 0x6d, 0x6d, 0x93, 0x6d, 0x6d, 0x93, 0x6d,
  0x6d, 0x6d, 0x93, 0x93, 0x6d, 0x93, 0x93, 0x6d, 0x6d, 0x93, 0x6d, 0x93,
  0x93, 0x6d, 0x6d, 0x6d, 0x93, 0x6d, 0x93, 0x93, 0x93, 0x6d, 0x93, 0x6d,
  0x6d, 0x93, 0x6d, 0x6d, 0x93, 0x6d, 0x6d, 0x93, 0x6d, 0x93, 0x6d, 0x93,
  0x93, 0x93, 0x6d, 0x6d, 0x6d, 0x6d, 0x6d, 0x6d, 0x6d, 0x6d, 0x93, 0x93,
  0x93, 0x93, 0x6d, 0x93, 0x6d, 0x93, 0x93, 0x93, 0x93, 0x6d, 0x93, 0x93,
  0x6d, 0x93, 0x6d, 0x6d, 0x93, 0x93, 0x93, 0x6d, 0x93, 0x6d, 0x93, 0x93,
  0x6d, 0x93, 0x6d, 0x6d, 0x93, 0x93, 0x6d, 0x93, 0x6d, 0x93, 0x6d, 0x6d,
  0x8d, 0x73, 0x73, 0x8d, 0x8d, 0x8d, 0x73, 0x8d, 0x8d, 0x8d, 0x73, 0x8d,
  0x73, 0x73, 0x8d, 0x8d, 0x8d, 0x73, 0x73, 0x8d, 0x8d, 0x73, 0x73, 0x8d,
  0x8d, 0x8d, 0x73, 0x8d, 0x8d, 0x73, 0x8d, 0x8d, 0x73, 0x73, 0x73, 0x8d,
  0x73, 0x73, 0x8d, 0x8d, 0x73, 0x73, 0x8d, 0x73, 0x73, 0x73, 0x73, 0x73,
  0x8d, 0x73, 0x8d, 0x8d, 0x8d, 0x8d, 0x73, 0x73, 0x73, 0x8d, 0x73, 0x8d,
  0x73, 0x73, 0x73, 0x8d, 0x8d, 0x73, 0x73, 0x8d, 0x8d, 0x73, 0x8d, 0x8d,
  0x8d, 0x8d, 0x8d, 0x73, 0x8d, 0x73, 0x73, 0x8d, 0x73, 0x8d, 0x73, 0x8d,
  0x73, 0x8d, 0x73, 0x73, 0x73, 0x73, 0x8d, 0x73, 0x73, 0x8d, 0x73, 0x73,
  0x73, 0x73, 0x73, 0x8d, 0x8d, 0x73, 0x8d, 0x73, 0x8d, 0x8d, 0x8d, 0x73,
  0x73, 0x73, 0x73, 0x73, 0x73, 0x73, 0x73, 0x73, 0x8d, 0x73, 0x8d, 0x73,
  0x73, 0x73, 0x8d, 0x73, 0x73, 0x73, 0x73, 0x73, 0x73, 0x8d, 0x73, 0x73,
  0x73, 0x73, 0x8d, 0x8d, 0x8d, 0x73, 0x8d, 0x8d, 0x73, 0x8d, 0x73, 0x73,
  0x6b, 0x6b, 0x95, 0x6b, 0x95, 0x95, 0x95, 0x6b, 0x6b, 0x95, 0x95, 0x95,
  0x6b, 0x95, 0x6b, 0x95, 0x95, 0x6b, 0x6b, 0x6b, 0x95, 0x95, 0x6b, 0x6b,
  0x95, 0x95, 0x6b, 0x6b, 0x6b, 0x95, 0x6b, 0x6b, 0x95, 0x6b, 0x6b, 0x6b,
  0x6b, 0x95, 0x95, 0x6b, 0x95, 0x6b, 0x6b, 0x95, 0x6b, 0x6b, 0x95, 0x95,
  0x6b, 0x95, 0x95, 0x6b, 0x95, 0x95, 0x95, 0x95, 0x95, 0x95, 0x95, 0x6b,
  0x6b, 0x95, 0x6b, 0x6b, 0x6b, 0x6b, 0x95, 0x6b, 0x6b, 0x6b, 0x6b, 0x6b,
  0x95, 0x95, 0x6b, 0x6b, 0x6b, 0x95, 0x6b, 0x6b, 0x6b, 0x6b, 0x6b, 0x6b,
  0x6b, 0x95, 0x95, 0x6b, 0x95, 0x95, 0x6b, 0x95, 0x6b, 0x95, 0x6b, 0x6b,
  0x95, 0x6b, 0x6b, 0x6b, 0x6b, 0x6b, 0x95, 0x95, 0x6b, 0x95, 0x95, 0x95,
  0x95, 0x95, 0x95, 0x6b, 0x6b, 0x6b, 0x6b, 0x6b, 0x6b, 0x6b, 0x95, 0x95,
  0x6b, 0x6b, 0x6b, 0x6b, 0x95, 0x95, 0x95, 0x6b, 0x95, 0x95, 0x95, 0x6b,
  0x95, 0x95, 0x95, 0x6b, 0x95, 0x95, 0x95, 0x95, 0x6b, 0x95, 0x6b, 0x6b,
  0x75, 0x75, 0x75, 0x75, 0x75, 0x8b, 0x8b, 0x8b, 0x75, 0x8b, 0x8b, 0x8b,
  0x8b, 0x75, 0x8b, 0x75, 0x75, 0x8b, 0x75, 0x8b, 0x8b, 0x75, 0x8b, 0x8b,
  0x75, 0x75, 0x8b, 0x8b, 0x75, 0x75, 0x8b, 0x75, 0x75, 0x75, 0x75, 0x8b,
  0x8b, 0x8b, 0x8b, 0x8b, 0x75, 0x75, 0x8b, 0x75, 0x75, 0x8b, 0x8b, 0x8b,
  0x8b, 0x75, 0x75, 0x8b, 0x75, 0x8b, 0x8b, 0x75, 0x75, 0x75, 0x8b, 0x8b,
  0x8b, 0x8b, 0x8b, 0x8b, 0x75, 0x75, 0x8b, 0x8b, 0x75, 0x75, 0x8b, 0x8b,
  0x75, 0x75, 0x8b, 0x75, 0x8b, 0x75, 0x75, 0x75, 0x75, 0x8b, 0x8b, 0x75,
  0x75, 0x75, 0x75, 0x8b, 0x75, 0x75, 0x75, 0x75, 0x75, 0x8b, 0x8b, 0x75,
  0x75, 0x75, 0x75, 0x75, 0x75, 0x8b, 0x75, 0x75, 0x8b, 0x75, 0x8b, 0x8b,
  0x8b, 0x8b, 0x75, 0x75, 0x75, 0x75, 0x75, 0x8b, 0x75, 0x75, 0x75, 0x75,
  0x75, 0x75, 0x8b, 0x75, 0x75, 0x75, 0x75, 0x75, 0x8b, 0x8b, 0x75, 0x75,
  0x75, 0x75, 0x8b, 0x8b, 0x8b, 0x75, 0x75, 0x75, 0x75, 0x75, 0x8b, 0x8b,
  0x94, 0x94, 0x6c, 0x94, 0x94, 0x6c, 0x6c, 0x6c, 0x94, 0x6c, 0x6c, 0x94,
  0x94, 0x6c, 0x94, 0x94, 0x94, 0x6c, 0x6c, 0x94, 0x94, 0x6c, 0x94, 0x6c,
  0x6c, 0x94, 0x94, 0x94, 0x94, 0x94, 0x6c, 0x94, 0x94, 0x94, 0x94, 0x94,
  0x6c, 0x94, 0x6c, 0x94, 0x94, 0x6c, 0x6c, 0x94, 0x94, 0x6c, 0x94, 0x94,
  0x94, 0x6c, 0x94, 0x6c, 0x94, 0x94, 0x94, 0x6c, 0x94, 0x6c, 0x6c, 0x94,
  0x94, 0x94, 0x6c, 0x6c, 0x94, 0x94, 0x6c, 0x94, 0x94, 0x94, 0x94, 0x6c,
  0x6c, 0x94, 0x94, 0x94, 0x94, 0x94, 0x94, 0x94, 0x94, 0x94, 0x94, 0x94,
  0x94, 0x94, 0x6c, 0x6c, 0x6c, 0x94, 0x94, 0x94, 0x94, 0x94, 0x94, 0x6c,
  0x94, 0x94, 0x94, 0x94, 0x94, 0x6c, 0x6c, 0x94, 0x94, 0x94, 0x94, 0x94,
  0x94, 0x94, 0x94, 0x94, 0x94, 0x94, 0x94, 0x94, 0x94, 0x94, 0x94, 0x94,
  0x94, 0x94, 0x94, 0x94, 0x94, 0x94, 0x94, 0x94, 0x94, 0x6c, 0x94, 0x94,
  0x94, 0x94, 0x94, 0x94, 0x94, 0x94, 0x94, 0x6c, 0x94, 0x6c, 0x94, 0x94,
  0x8b, 0x75, 0x8b, 0x75, 0x8b, 0x75, 0x8b, 0x75, 0x75, 0x8b, 0x75, 0x8b,
  0x75, 0x8b, 0x8b, 0x8b, 0x8b, 0x75, 0x8b, 0x8b, 0x8b, 0x8b, 0x8b, 0x75,
  0x75, 0x8b, 0x8b, 0x8b, 0x8b, 0x75, 0x75, 0x75, 0x75, 0x75, 0x75, 0x8b,
  0x75, 0x8b, 0x8b, 0x8b, 0x75, 0x75, 0x8b, 0x75, 0x75, 0x75, 0x8b, 0x75,
  0x75, 0x75, 0x8b, 0x75, 0x8b, 0x8b, 0x8b, 0x75, 0x8b, 0x8b, 0x75, 0x75,
  0x8b, 0x8b, 0x8b, 0x8b, 0x75, 0x75, 0x75, 0x8b, 0x8b, 0x75, 0x75, 0x8b,
  0x75, 0x8b, 0x8b, 0x75, 0x8b, 0x75, 0x75, 0x8b, 0x75, 0x75, 0x8b, 0x8b,
  0x75, 0x8b, 0x8b, 0x8b, 0x8b, 0x75, 0x8b, 0x75, 0x75, 0x8b, 0x8b, 0x75,
  0x75, 0x75, 0x75, 0x8b, 0x75, 0x8b, 0x8b, 0x8b, 0x75, 0x8b, 0x8b, 0x8b,
  0x75, 0x8b, 0x75, 0x75, 0x75, 0x75, 0x75, 0x8b, 0x75, 0x8b, 0x8b, 0x75,
  0x75, 0x75, 0x8b, 0x8b, 0x75, 0x8b, 0x75, 0x75, 0x8b, 0x8b, 0x75, 0x75,
  0x75, 0x8b, 0x8b, 0x8b, 0x8b, 0x75, 0x8b, 0x75, 0x75, 0x8b, 0x8b, 0x75,
  0x78, 0x88, 0x88, 0x88, 0x78, 0x78, 0x78, 0x78, 0x88, 0x88, 0x78, 0x78,
  0x78, 0x78, 0x88, 0x78, 0x78, 0x88, 0x88, 0x78, 0x88, 0x88, 0x88, 0x88,
  0x88, 0x88, 0x78, 0x88, 0x78, 0x88, 0x88, 0x78, 0x88, 0x78, 0x78, 0x88,
  0x88, 0x88, 0x88, 0x88, 0x88, 0x88, 0x88, 0x88, 0x88, 0x88, 0x88, 0x88,
  0x88, 0x88, 0x78, 0x78, 0x88, 0x88, 0x88, 0x88, 0x78, 0x78, 0x78, 0x88,
  0x78, 0x78, 0x88, 0x78, 0x88, 0x88, 0x88, 0x88, 0x88, 0x88, 0x88, 0x88,
  0x88, 0x88, 0x78, 0x88, 0x88, 0x88, 0x88, 0x88, 0x88, 0x78, 0x78, 0x88,
  0x88, 0x88, 0x88, 0x88, 0x88, 0x88, 0x88, 0x88, 0x78, 0x88, 0x88, 0x88,
  0x78, 0x88, 0x78, 0x88, 0x78, 0x78, 0x78, 0x88, 0x78, 0x78, 0x88, 0x88,
  0x78, 0x88, 0x78, 0x78, 0x88, 0x88, 0x88, 0x88, 0x88, 0x88, 0x88, 0x88,
  0x88, 0x88, 0x78, 0x78, 0x88, 0x88, 0x88, 0x88, 0x88, 0x88, 0x88, 0x88,
  0x78, 0x88, 0x78, 0x88, 0x88, 0x88, 0x88, 0x88, 0x78, 0x88, 0x88, 0x78,
  0x8e, 0x8e, 0x72, 0x8e, 0x8e, 0x8e, 0x8e, 0x72, 0x72, 0x72, 0x72, 0x8e,
  0x72, 0x8e, 0x72, 0x72, 0x8e, 0x72, 0x72, 0x72, 0x8e, 0x8e, 0x72, 0x72,
  0x8e, 0x8e, 0x8e, 0x8e, 0x8e, 0x8e, 0x72, 0x8e, 0x8e, 0x8e, 0x8e, 0x8e,
  0x8e, 0x8e, 0x8e, 0x72, 0x8e, 0x8e, 0x8e, 0x8e, 0x8e, 0x8e, 0x8e, 0x8e,
  0x8e, 0x72, 0x8e, 0x72, 0x72, 0x72, 0x72, 0x72, 0x8e, 0x72, 0x8e, 0x8e,
  0x72, 0x8e, 0x8e, 0x72, 0x72, 0x8e, 0x8e, 0x72, 0x8e, 0x8e, 0x72, 0x8e,
  0x8e, 0x72, 0x8e, 0x72, 0x8e, 0x8e, 0x72, 0x8e, 0x8e, 0x8e, 0x8e, 0x72,
  0x8e, 0x8e, 0x72, 0x8e, 0x8e, 0x8e, 0x72, 0x8e, 0x72, 0x8e, 0x72, 0x8e,
  0x72, 0x8e, 0x72, 0x72, 0x72, 0x72, 0x8e, 0x72, 0x8e, 0x72, 0x8e, 0x8e,
  0x72, 0x72, 0x8e, 0x8e, 0x8e, 0x8e, 0x8e, 0x8e, 0x8e, 0x8e, 0x8e, 0x8e,
  0x72, 0x72, 0x8e, 0x72, 0x8e, 0x72, 0x72, 0x8e, 0x8e, 0x72, 0x8e, 0x8e,
  0x8e, 0x72, 0x72, 0x8e, 0x72, 0x8e, 0x72, 0x8e, 0x8e, 0x72, 0x72, 0x72,
  0x99, 0x67, 0x67, 0x99, 0x99, 0x67, 0x67, 0x67, 0x99, 0x67, 0x99, 0x99,
  0x99, 0x67, 0x67, 0x99, 0x99, 0x67, 0x67, 0x99, 0x99, 0x99, 0x99, 0x67,
  0x67, 0x67, 0x99, 0x99, 0x67, 0x67, 0x99, 0x99, 0x99, 0x99, 0x99, 0x99,
  0x67, 0x99, 0x67, 0x99, 0x67, 0x99, 0x99, 0x99, 0x99, 0x99, 0x99, 0x99,
  0x99, 0x99, 0x67, 0x67, 0x99, 0x99, 0x99, 0x67, 0x99, 0x67, 0x67, 0x99,
  0x67, 0x99, 0x99, 0x67, 0x67, 0x99, 0x67, 0x99, 0x99, 0x67, 0x99, 0x99,
  0x67, 0x99, 0x99, 0x99, 0x99, 0x99, 0x99, 0x99, 0x99, 0x99, 0x67, 0x99,
  0x67, 0x99, 0x67, 0x99, 0x99, 0x99, 0x99, 0x99, 0x67, 0x99, 0x99, 0x99,
  0x99, 0x67, 0x99, 0x67, 0x99, 0x99, 0x99, 0x67, 0x99, 0x99, 0x99, 0x99,
  0x67, 0x99, 0x99, 0x99, 0x99, 0x99, 0x99, 0x99, 0x99, 0x99, 0x99, 0x99,
  0x99, 0x99, 0x67, 0x99, 0x99, 0x99, 0x99, 0x99, 0x99, 0x99, 0x99, 0x99,
  0x99, 0x99, 0x67, 0x99, 0x99, 0x99, 0x67, 0x99, 0x99, 0x67, 0x67, 0x99,
  0x73, 0x8d, 0x73, 0x73, 0x73, 0x8d, 0x73, 0x73, 0x73, 0x8d, 0x73, 0x73,
  0x73, 0x8d, 0x73, 0x73, 0x8d, 0x73, 0x73, 0x73, 0x8d, 0x8d, 0x73, 0x73,
  0x8d, 0x8d, 0x73, 0x8d, 0x73, 0x8d, 0x73, 0x73, 0x73, 0x8d, 0x8d, 0x8d,
  0x8d, 0x8d, 0x73, 0x8d, 0x73, 0x73, 0x8d, 0x8d, 0x73, 0x8d, 0x8d, 0x8d,
  0x73, 0x73, 0x73, 0x73, 0x73, 0x73, 0x8d, 0x8d, 0x73, 0x73, 0x73, 0x73,
  0x73, 0x8d, 0x73, 0x8d, 0x73, 0x8d, 0x8d, 0x73, 0x8d, 0x8d, 0x8d, 0x73,
  0x8d, 0x8d, 0x73, 0x73, 0x8d, 0x8d, 0x8d, 0x73, 0x8d, 0x73, 0x8d, 0x8d,
  0x8d, 0x8d, 0x73, 0x73, 0x8d, 0x73, 0x8d, 0x8d, 0x73, 0x8d, 0x8d, 0x73,
  0x8d, 0x8d, 0x73, 0x73, 0x73, 0x73, 0x73, 0x8d, 0x8d, 0x73, 0x8d, 0x8d,
  0x73, 0x8d, 0x73, 0x8d, 0x8d, 0x8d, 0x8d, 0x8d, 0x8d, 0x8d, 0x73, 0x8d,
  0x73, 0x73, 0x73, 0x8d, 0x8d, 0x8d, 0x8d, 0x8d, 0x8d, 0x73, 0x73, 0x8d,
  0x73, 0x8d, 0x73, 0x73, 0x8d, 0x73, 0x8d, 0x8d, 0x73, 0x8d, 0x73, 0x73,
  0x6e, 0x92, 0x92, 0x6e, 0x6e, 0x6e, 0x6e, 0x6e, 0x92, 0x92, 0x6e, 0x6e,
  0x6e, 0x6e, 0x6e, 0x92, 0x6e, 0x6e, 0x6e, 0x6e, 0x6e, 0x92, 0x6e, 0x6e,
  0x92, 0x6e, 0x6e, 0x92, 0x6e, 0x92, 0x6e, 0x6e, 0x92, 0x6e, 0x6e, 0x92,
  0x92, 0x6e, 0x6e, 0x92, 0x92, 0x92, 0x92, 0x6e, 0x92, 0x6e, 0x92, 0x92,
  0x6e, 0x6e, 0x6e, 0x6e, 0x92, 0x6e, 0x6e, 0x92, 0x6e, 0x6e, 0x6e, 0x6e,
  0x6e, 0x6e, 0x92, 0x6e, 0x6e, 0x92, 0x92, 0x6e, 0x92, 0x92, 0x6e, 0x6e,
  0x6e, 0x92, 0x6e, 0x92, 0x6e, 0x92, 0x6e, 0x6e, 0x92, 0x6e, 0x6e, 0x92,
  0x92, 0x6e, 0x92, 0x6e, 0x92, 0x6e, 0x6e, 0x92, 0x6e, 0x6e, 0x6e, 0x92,
  0x92, 0x92, 0x6e, 0x6e, 0x92, 0x6e, 0x92, 0x92, 0x92, 0x6e, 0x92, 0x6e,
  0x92, 0x6e, 0x6e, 0x92, 0x6e, 0x92, 0x92, 0x6e, 0x6e, 0x6e, 0x92, 0x6e,
  0x92, 0x92, 0x6e, 0x6e, 0x92, 0x92, 0x6e, 0x92, 0x92, 0x6e, 0x6e, 0x92,
  0x92, 0x92, 0x6e, 0x6e, 0x6e, 0x92, 0x6e, 0x92, 0x6e, 0x92, 0x6e, 0x6e,
  0x8d, 0x8d, 0x73, 0x8d, 0x73, 0x8d, 0x8d, 0x73, 0x73, 0x8d, 0x73, 0x73,
  0x8d, 0x8d, 0x8d, 0x73, 0x8d, 0x8d, 0x8d, 0x73, 0x8d, 0x8d, 0x8d, 0x8d,
  0x8d, 0x8d, 0x8d, 0x8d, 0x8d, 0x8d, 0x8d, 0x8d, 0x73, 0x8d, 0x8d, 0x8d,
  0x8d, 0x8d, 0x8d, 0x8d, 0x8d, 0x73, 0x8d, 0x8d, 0x8d, 0x8d, 0x8d, 0x8d,
  0x8d, 0x73, 0x73, 0x8d, 0x73, 0x8d, 0x73, 0x8d, 0x8d, 0x73, 0x8d, 0x8d,
  0x73, 0x8d, 0x8d, 0x8d, 0x8d, 0x8d, 0x8d, 0x8d, 0x8d, 0x8d, 0x8d, 0x8d,
  0x8d, 0x8d, 0x8d, 0x73, 0x8d, 0x8d, 0x8d, 0x8d, 0x73, 0x73, 0x8d, 0x8d,
  0x73, 0x8d, 0x8d, 0x8d, 0x8d, 0x73, 0x8d, 0x8d, 0x8d, 0x8d, 0x8d, 0x73,
  0x73, 0x73, 0x73, 0x8d, 0x8d, 0x73, 0x73, 0x8d, 0x73, 0x73, 0x73, 0x73,
  0x73, 0x73, 0x73, 0x8d, 0x8d, 0x73, 0x8d, 0x73, 0x8d, 0x8d, 0x8d, 0x8d,
  0x73, 0x8d, 0x8d, 0x73, 0x8d, 0x73, 0x8d, 0x73, 0x73, 0x73, 0x73, 0x8d,
  0x73, 0x8d, 0x8d, 0x73, 0x73, 0x73, 0x8d, 0x8d, 0x73, 0x8d, 0x73, 0x73,
  0x6c, 0x6c, 0x94, 0x6c, 0x6c, 0x94, 0x6c, 0x94, 0x94, 0x6c, 0x6c, 0x94,
  0x94, 0x94, 0x94, 0x6c, 0x6c, 0x94, 0x94, 0x6c, 0x94, 0x6c, 0x6c, 0x6c,
  0x94, 0x6c, 0x6c, 0x6c, 0x94, 0x6c, 0x6c, 0x6c, 0x6c, 0x6c, 0x6c, 0x6c,
  0x94, 0x94, 0x6c, 0x6c, 0x6c, 0x94, 0x6c, 0x94, 0x6c, 0x94, 0x6c, 0x6c,
  0x6c, 0x6c, 0x6c, 0x94, 0x94, 0x6c, 0x94, 0x94, 0x6c, 0x6c, 0x94, 0x6c,
  0x6c, 0x94, 0x94, 0x94, 0x6c, 0x94, 0x94, 0x6c, 0x94, 0x6c, 0x94, 0x94,
  0x6c, 0x6c, 0x6c, 0x6c, 0x94, 0x6c, 0x6c, 0x6c, 0x6c, 0x6c, 0x94, 0x6c,
  0x6c, 0x94, 0x6c, 0x6c, 0x94, 0x6c, 0x6c, 0x94, 0x94, 0x94, 0x6c, 0x6c,
  0x94, 0x94, 0x6c, 0x94, 0x6c, 0x6c, 0x6c, 0x94, 0x94, 0x6c, 0x94, 0x6c,
  0x94, 0x6c, 0x6c, 0x94, 0x6c, 0x94, 0x94, 0x94, 0x94, 0x94, 0x94, 0x6c,
  0x6c, 0x6c, 0x94, 0x94, 0x6c, 0x94, 0x6c, 0x6c, 0x94, 0x94, 0x94, 0x6c,
  0x94, 0x94, 0x6c, 0x94, 0x94, 0x94, 0x6c, 0x94, 0x94, 0x94, 0x6c, 0x6c,
  0x68, 0x98, 0x98, 0x98, 0x68, 0x68, 0x68, 0x68, 0x68, 0x98, 0x68, 0x68,
  0x68, 0x98, 0x68, 0x68, 0x98, 0x68, 0x68, 0x68, 0x68, 0x98, 0x68, 0x68,
  0x98, 0x98, 0x68, 0x68, 0x68, 0x98, 0x68, 0x68, 0x98, 0x98, 0x98, 0x68,
  0x98, 0x98, 0x98, 0x98, 0x98, 0x98, 0x98, 0x98, 0x98, 0x68, 0x98, 0x98,
  0x68, 0x98, 0x98, 0x68, 0x98, 0x98, 0x98, 0x68, 0x68, 0x68, 0x68, 0x68,
  0x98, 0x68, 0x98, 0x98, 0x98, 0x98, 0x98, 0x98, 0x68, 0x98, 0x68, 0x68,
  0x98, 0x68, 0x68, 0x98, 0x68, 0x98, 0x68, 0x68, 0x98, 0x68, 0x98, 0x68,
  0x68, 0x68, 0x68, 0x98, 0x98, 0x68, 0x98, 0x68, 0x98, 0x68, 0x68, 0x98,
  0x98, 0x68, 0x68, 0x98, 0x68, 0x68, 0x98, 0x98, 0x68, 0x68, 0x68, 0x68,
  0x68, 0x68, 0x98, 0x98, 0x98, 0x98, 0x98, 0x68, 0x98, 0x68, 0x98, 0x68,
  0x98, 0x98, 0x68, 0x68, 0x98, 0x98, 0x98, 0x68, 0x68, 0x68, 0x68, 0x68,
  0x68, 0x68, 0x68, 0x68, 0x68, 0x98, 0x68, 0x98, 0x68, 0x68, 0x68, 0x68,
  0x72, 0x72, 0x72, 0x8e, 0x8e, 0x8e, 0x72, 0x8e, 0x8e, 0x72, 0x8e, 0x8e,
  0x8e, 0x72, 0x72, 0x8e, 0x8e, 0x8e, 0x8e, 0x8e, 0x8e, 0x72, 0x72, 0x72,
  0x8e, 0x8e, 0x72, 0x72, 0x72, 0x72, 0x72, 0x8e, 0x72, 0x72, 0x72, 0x8e,
  0x8e, 0x8e, 0x72, 0x72, 0x72, 0x8e, 0x72, 0x72, 0x72, 0x8e, 0x8e, 0x72,
  0x8e, 0x72, 0x72, 0x72, 0x72, 0x72, 0x72, 0x8e, 0x72, 0x8e, 0x8e, 0x8e,
  0x72, 0x72, 0x8e, 0x8e, 0x72, 0x8e, 0x8e, 0x8e, 0x8e, 0x72, 0x72, 0x72,
  0x8e, 0x72, 0x72, 0x72, 0x8e, 0x72, 0x72, 0x8e, 0x72, 0x72, 0x8e, 0x72,
  0x72, 0x8e, 0x72, 0x72, 0x72, 0x8e, 0x72, 0x72, 0x8e, 0x8e, 0x8e, 0x72,
  0x8e, 0x8e, 0x8e, 0x72, 0x8e, 0x72, 0x72, 0x72, 0x8e, 0x72, 0x72, 0x8e,
  0x72, 0x72, 0x72, 0x8e, 0x72, 0x8e, 0x8e, 0x8e, 0x72, 0x8e, 0x72, 0x8e,
  0x8e, 0x8e, 0x72, 0x72, 0x8e, 0x72, 0x8e, 0x72, 0x72, 0x72, 0x8e, 0x72,
  0x72, 0x8e, 0x72, 0x72, 0x72, 0x8e, 0x72, 0x72, 0x72, 0x8e, 0x72, 0x72,
  0x98, 0x68, 0x68, 0x98, 0x98, 0x68, 0x98, 0x68, 0x98, 0x98, 0x68, 0x68,
  0x98, 0x68, 0x98, 0x98, 0x98, 0x68, 0x98, 0x98, 0x68, 0x68, 0x68, 0x98,
  0x68, 0x98, 0x98, 0x68, 0x98, 0x68, 0x68, 0x68, 0x98, 0x98, 0x98, 0x98,
  0x98, 0x98, 0x68, 0x68, 0x98, 0x68, 0x68, 0x98, 0x68, 0x98, 0x68, 0x98,
  0x98, 0x68, 0x98, 0x98, 0x68, 0x68, 0x98, 0x98, 0x98, 0x68, 0x98, 0x98,
  0x68, 0x68, 0x98, 0x98, 0x98, 0x68, 0x68, 0x98, 0x68, 0x68, 0x98, 0x98,
  0x68, 0x68, 0x98, 0x98, 0x68, 0x98, 0x98, 0x98, 0x98, 0x98, 0x68, 0x68,
  0x68, 0x98, 0x68, 0x98, 0x98, 0x98, 0x68, 0x98, 0x98, 0x98, 0x98, 0x68,
  0x98, 0x68, 0x98, 0x68, 0x98, 0x68, 0x98, 0x68, 0x98, 0x68, 0x68, 0x68,
  0x68, 0x98, 0x98, 0x98, 0x98, 0x98, 0x98, 0x98, 0x68, 0x98, 0x98, 0x98,
  0x98, 0x98, 0x98, 0x98, 0x98, 0x98, 0x68, 0x98, 0x98, 0x98, 0x98, 0x98,
  0x98, 0x98, 0x98, 0x68, 0x98, 0x98, 0x68, 0x98, 0x98, 0x68, 0x98, 0x98,
  0x95, 0x95, 0x95, 0x95, 0x6b, 0x6b, 0x95, 0x95, 0x6b, 0x6b, 0x95, 0x6b,
  0x95, 0x6b, 0x95, 0x95, 0x95, 0x95, 0x95, 0x95, 0x95, 0x6b, 0x95, 0x95,
  0x95, 0x95, 0x95, 0x95, 0x95, 0x95, 0x6b, 0x6b, 0x95, 0x95, 0x95, 0x95,
  0x6b, 0x95, 0x95, 0x95, 0x95, 0x6b, 0x95, 0x95, 0x95, 0x6b, 0x95, 0x95,
  0x95, 0x6b, 0x6b, 0x6b, 0x95, 0x95, 0x95, 0x95, 0x95, 0x95, 0x95, 0x95,
  0x6b, 0x6b, 0x95, 0x6b, 0x95, 0x95, 0x95, 0x95, 0x6b, 0x6b, 0x95, 0x95,
  0x95, 0x6b, 0x95, 0x95, 0x95, 0x6b, 0x95, 0x95, 0x95, 0x6b, 0x6b, 0x95,
  0x95, 0x95, 0x6b, 0x6b, 0x95, 0x95, 0x6b, 0x95, 0x95, 0x6b, 0x95, 0x95,
  0x95, 0x6b, 0x6b, 0x6b, 0x95, 0x95, 0x6b, 0x6b, 0x95, 0x6b, 0x95, 0x95,
  0x95, 0x95, 0x95, 0x95, 0x95, 0x95, 0x95, 0x6b, 0x95, 0x95, 0x95, 0x6b,
  0x6b, 0x95, 0x95, 0x6b, 0x95, 0x6b, 0x95, 0x95, 0x6b, 0x6b, 0x6b, 0x6b,
  0x6b, 0x95, 0x95, 0x6b, 0x6b, 0x95, 0x95, 0x6b, 0x6b, 0x6b, 0x6b, 0x6b,
  0x68, 0x98, 0x68, 0x68, 0x98, 0x98, 0x68, 0x68, 0x98, 0x68, 0x68, 0x68,
  0x68, 0x68, 0x68, 0x68, 0x68, 0x68, 0x68, 0x68, 0x68, 0x98, 0x68, 0x68,
  0x68, 0x68, 0x68, 0x98, 0x68, 0x98, 0x68, 0x68, 0x98, 0x98, 0x98, 0x98,
  0x98, 0x98, 0x68, 0x68, 0x98, 0x68, 0x68, 0x98, 0x98, 0x98, 0x68, 0x98,
  0x68, 0x98, 0x98, 0x68, 0x98, 0x68, 0x68, 0x98, 0x68, 0x98, 0x98, 0x68,
  0x68, 0x98, 0x98, 0x68, 0x68, 0x68, 0x98, 0x68, 0x68, 0x98, 0x68, 0x68,
  0x98, 0x98, 0x68, 0x98, 0x68, 0x98, 0x68, 0x68, 0x98, 0x68, 0x68, 0x68,
  0x98, 0x98, 0x98, 0x68, 0x98, 0x68, 0x98, 0x98, 0x98, 0x68, 0x68, 0x98,
  0x98, 0x98, 0x98, 0x68, 0x68, 0x68, 0x98, 0x68, 0x98, 0x68, 0x98, 0x68,
  0x98, 0x68, 0x68, 0x68, 0x68, 0x98, 0x98, 0x68, 0x98, 0x98, 0x68, 0x68,
  0x68, 0x98, 0x68, 0x98, 0x98, 0x98, 0x98, 0x68, 0x68, 0x68, 0x98, 0x68,
  0x98, 0x98, 0x68, 0x68, 0x68, 0x98, 0x98, 0x98, 0x98, 0x98, 0x68, 0x68,
  0x00, 0x00, 0x00, 0x00, 0xca, 0xd8, 0xff, 0xff, 0x04, 0x00, 0x00, 0x00,
  0x24, 0x00, 0x00, 0x00, 0xb2, 0xd3, 0xeb, 0x3d, 0x2b, 0x25, 0x9d, 0x3d,
  0xb0, 0x63, 0xb6, 0xbd, 0xc0, 0x73, 0x42, 0x3e, 0x1a, 0x0e, 0xb8, 0x3d,
  0xff, 0x52, 0x0e, 0xbd, 0x1c, 0x17, 0xe5, 0x3e, 0x3b, 0x2c, 0x04, 0x3d,
  0xb9, 0x79, 0x51, 0xbd, 0xfa, 0xd8, 0xff, 0xff, 0x04, 0x00, 0x00, 0x00,
  0x00, 0x09, 0x00, 0x00, 0x88, 0x88, 0x78, 0x78, 0x78, 0x88, 0x88, 0x78,
  0x78, 0x88, 0x88, 0x78, 0x78, 0x78, 0x78, 0x78, 0x88, 0x78, 0x88, 0x88,
  0x78, 0x78, 0x78, 0x78, 0x78, 0x78, 0x78, 0x78, 0x88, 0x78, 0x78, 0x78,
  0x78, 0x78, 0x88, 0x88, 0x78, 0x78, 0x78, 0x78, 0x88, 0x78, 0x88, 0x88,
  0x88, 0x88, 0x88, 0x78, 0x88, 0x88, 0x88, 0x88, 0x78, 0x88, 0x88, 0x78,
  0x88, 0x88, 0x78, 0x78, 0x78, 0x88, 0x88, 0x88, 0x88, 0x88, 0x88, 0x88,
  0x78, 0x78, 0x88, 0x88, 0x88, 0x88, 0x88, 0x78, 0x78, 0x78, 0x88, 0x78,
  0x88, 0x78, 0x88, 0x88, 0x78, 0x78, 0x78, 0x78, 0x88, 0x78, 0x88, 0x78,
  0x88, 0x88, 0x88, 0x88, 0x88, 0x78, 0x78, 0x88, 0x78, 0x78, 0x88, 0x88,
  0x78, 0x88, 0x78, 0x78, 0x88, 0x78, 0x78, 0x88, 0x88, 0x78, 0x78, 0x88,
  0x88, 0x88, 0x88, 0x78, 0x88, 0x78, 0x88, 0x88, 0x88, 0x78, 0x78, 0x78,
  0x78, 0x78, 0x78, 0x88, 0x78, 0x88, 0x88, 0x88, 0x88, 0x78, 0x88, 0x88,
  0x88, 0x88, 0x88, 0x88, 0x90, 0x70, 0x90, 0x90, 0x90, 0x90, 0x90, 0x90,
  0x90, 0x90, 0x70, 0x90, 0x90, 0x70, 0x90, 0x70, 0x90, 0x90, 0x90, 0x70,
  0x70, 0x90, 0x90, 0x70, 0x70, 0x90, 0x70, 0x90, 0x70, 0x90, 0x70, 0x90,
  0x90, 0x70, 0x90, 0x90, 0x70, 0x90, 0x90, 0x90, 0x90, 0x90, 0x90, 0x90,
  0x70, 0x70, 0x70, 0x90, 0x90, 0x70, 0x90, 0x90, 0x90, 0x70, 0x70, 0x90,
  0x90, 0x90, 0x70, 0x90, 0x70, 0x90, 0x90, 0x70, 0x90, 0x70, 0x90, 0x70,
  0x70, 0x90, 0x90, 0x90, 0x70, 0x70, 0x70, 0x70, 0x90, 0x90, 0x90, 0x70,
  0x70, 0x70, 0x70, 0x90, 0x70, 0x90, 0x70, 0x90, 0x90, 0x90, 0x90, 0x90,
  0x70, 0x70, 0x70, 0x70, 0x90, 0x90, 0x90, 0x90, 0x70, 0x70, 0x90, 0x70,
  0x70, 0x70, 0x90, 0x90, 0x90, 0x70, 0x70, 0x70, 0x90, 0x70, 0x90, 0x90,
  0x70, 0x70, 0x70, 0x70, 0x90, 0x70, 0x90, 0x90, 0x90, 0x70, 0x70, 0x70,
  0x70, 0x70, 0x70, 0x90, 0x90, 0x70, 0x90, 0x90, 0x70, 0x70, 0x70, 0x90,
  0x90, 0x70, 0x70, 0x70, 0x87, 0x79, 0x87, 0x87, 0x87, 0x87, 0x79, 0x87,
  0x87, 0x87, 0x79, 0x87, 0x87, 0x87, 0x87, 0x79, 0x87, 0x79, 0x79, 0x87,
  0x79, 0x79, 0x87, 0x87, 0x87, 0x87, 0x87, 0x87, 0x87, 0x79, 0x79, 0x79,
  0x79, 0x79, 0x79, 0x87, 0x87, 0x87, 0x87, 0x87, 0x87, 0x87, 0x79, 0x87,
  0x87, 0x87, 0x79, 0x79, 0x87, 0x79, 0x87, 0x87, 0x87, 0x87, 0x87, 0x87,
  0x79, 0x79, 0x79, 0x87, 0x79, 0x87, 0x79, 0x79, 0x79, 0x79, 0x87, 0x87,
  0x87, 0x87, 0x87, 0x87, 0x79, 0x87, 0x79, 0x87, 0x79, 0x79, 0x87, 0x79,
  0x79, 0x79, 0x79, 0x87, 0x87, 0x79, 0x87, 0x87, 0x79, 0x79, 0x79, 0x87,
  0x87, 0x87, 0x87, 0x79, 0x87, 0x79, 0x87, 0x87, 0x79, 0x79, 0x79, 0x87,
  0x87, 0x79, 0x79, 0x79, 0x87, 0x87, 0x79, 0x79, 0x87, 0x79, 0x87, 0x87,
  0x79, 0x87, 0x87, 0x87, 0x87, 0x79, 0x79, 0x79, 0x87, 0x87, 0x87, 0x79,
  0x79, 0x87, 0x87, 0x87, 0x87, 0x87, 0x87, 0x87, 0x79, 0x79, 0x79, 0x87,
  0x87, 0x87, 0x87, 0x79, 0x82, 0x82, 0x82, 0x82, 0x7e, 0x82, 0x82, 0x7e,
  0x82, 0x82, 0x7e, 0x82, 0x7e, 0x7e, 0x7e, 0x82, 0x82, 0x7e, 0x82, 0x7e,
  0x7e, 0x82, 0x7e, 0x7e, 0x82, 0x82, 0x82, 0x7e, 0x82, 0x7e, 0x7e, 0x7e,
  0x7e, 0x82, 0x82, 0x82, 0x82, 0x7e, 0x7e, 0x7e, 0x7e, 0x7e, 0x82, 0x82,
  0x82, 0x82, 0x82, 0x7e, 0x82, 0x82, 0x82, 0x82, 0x82, 0x7e, 0x82, 0x7e,
  0x82, 0x7e, 0x82, 0x82, 0x82, 0x7e, 0x82, 0x82, 0x82, 0x82, 0x82, 0x7e,
  0x82, 0x82, 0x7e, 0x82, 0x7e, 0x82, 0x82, 0x82, 0x82, 0x82, 0x82, 0x7e,
  0x7e, 0x82, 0x82, 0x82, 0x7e, 0x7e, 0x7e, 0x82, 0x7e, 0x7e, 0x82, 0x7e,
  0x82, 0x7e, 0x7e, 0x7e, 0x7e, 0x82, 0x7e, 0x82, 0x82, 0x82, 0x82, 0x82,
  0x82, 0x7e, 0x7e, 0x82, 0x82, 0x7e, 0x82, 0x7e, 0x82, 0x7e, 0x7e, 0x82,
  0x7e, 0x82, 0x82, 0x82, 0x82, 0x82, 0x82, 0x7e, 0x82, 0x82, 0x82, 0x82,
  0x7e, 0x7e, 0x82, 0x82, 0x82, 0x7e, 0x82, 0x7e, 0x7e, 0x7e, 0x82, 0x82,
  0x82, 0x7e, 0x7e, 0x82, 0x8c, 0x74, 0x74, 0x74, 0x8c, 0x74, 0x8c, 0x8c,
  0x8c, 0x8c, 0x74, 0x74, 0x8c, 0x8c, 0x8c, 0x74, 0x74, 0x8c, 0x74, 0x8c,
  0x74, 0x74, 0x74, 0x8c, 0x8c, 0x8c, 0x8c, 0x8c, 0x8c, 0x74, 0x8c, 0x74,
  0x74, 0x74, 0x74, 0x8c, 0x8c, 0x74, 0x74, 0x74, 0x8c, 0x8c, 0x8c, 0x8c,
  0x8c, 0x8c, 0x74, 0x74, 0x74, 0x74, 0x8c, 0x8c, 0x74, 0x8c, 0x74, 0x8c,
  0x8c, 0x74, 0x74, 0x8c, 0x74, 0x8c, 0x8c, 0x74, 0x74, 0x74, 0x8c, 0x8c,
  0x74, 0x74, 0x74, 0x8c, 0x8c, 0x74, 0x74, 0x8c, 0x8c, 0x8c, 0x74, 0x74,
  0x74, 0x8c, 0x8c, 0x74, 0x8c, 0x8c, 0x74, 0x74, 0x8c, 0x8c, 0x74, 0x8c,
  0x8c, 0x8c, 0x8c, 0x74, 0x8c, 0x8c, 0x74, 0x8c, 0x74, 0x8c, 0x8c, 0x8c,
  0x74, 0x74, 0x74, 0x8c, 0x8c, 0x8c, 0x8c, 0x8c, 0x74, 0x74, 0x8c, 0x74,
  0x8c, 0x8c, 0x74, 0x8c, 0x8c, 0x74, 0x74, 0x8c, 0x8c, 0x8c, 0x8c, 0x74,
  0x74, 0x8c, 0x74, 0x74, 0x8c, 0x74, 0x8c, 0x74, 0x74, 0x8c, 0x74, 0x8c,
  0x8c, 0x8c, 0x8c, 0x8c, 0x91, 0x6f, 0x6f, 0x91, 0x91, 0x91, 0x91, 0x91,
  0x91, 0x91, 0x91, 0x91, 0x91, 0x6f, 0x91, 0x91, 0x6f, 0x91, 0x91, 0x91,
  0x91, 0x91, 0x6f, 0x6f, 0x91, 0x91, 0x6f, 0x6f, 0x91, 0x6f, 0x6f, 0x91,
  0x6f, 0x91, 0x91, 0x91, 0x91, 0x6f, 0x6f, 0x6f, 0x91, 0x6f, 0x91, 0x6f,
  0x91, 0x91, 0x6f, 0x6f, 0x91, 0x91, 0x6f, 0x6f, 0x91, 0x91, 0x91, 0x91,
  0x91, 0x91, 0x6f, 0x6f, 0x6f, 0x91, 0x91, 0x91, 0x6f, 0x6f, 0x6f, 0x6f,
  0x91, 0x6f, 0x91, 0x6f, 0x91, 0x91, 0x6f, 0x6f, 0x6f, 0x91, 0x6f, 0x91,
  0x91, 0x91, 0x91, 0x91, 0x91, 0x6f, 0x6f, 0x6f, 0x6f, 0x6f, 0x91, 0x6f,
  0x6f, 0x91, 0x6f, 0x6f, 0x6f, 0x6f, 0x6f, 0x6f, 0x91, 0x91, 0x91, 0x91,
  0x6f, 0x91, 0x6f, 0x6f, 0x6f, 0x6f, 0x91, 0x91, 0x6f, 0x91, 0x91, 0x91,
  0x91, 0x91, 0x91, 0x91, 0x91, 0x6f, 0x6f, 0x91, 0x6f, 0x91, 0x91, 0x91,
  0x6f, 0x6f, 0x6f, 0x91, 0x6f, 0x6f, 0x6f, 0x6f, 0x91, 0x91, 0x91, 0x6f,
  0x91, 0x6f, 0x91, 0x91, 0x69, 0x69, 0x97, 0x97, 0x69, 0x69, 0x69, 0x69,
  0x97, 0x69, 0x69, 0x97, 0x69, 0x97, 0x69, 0x69, 0x69, 0x69, 0x97, 0x69,
  0x69, 0x69, 0x69, 0x69, 0x69, 0x69, 0x97, 0x97, 0x69, 0x69, 0x69, 0x69,
  0x97, 0x69, 0x97, 0x69, 0x69, 0x97, 0x69, 0x69, 0x69, 0x69, 0x69, 0x97,
  0x97, 0x97, 0x69, 0x69, 0x69, 0x97, 0x69, 0x69, 0x69, 0x69, 0x69, 0x69,
